{"물놀이": 0, "대장암": 1, "모국": 2, "찐": 3, "자연사": 4, "중상": 5, "미생물": 6, "사살": 7, "判": 8, "Su": 9, "국문": 10, "협회": 11, "등한": 12, "420": 13, "박석": 14, "관용": 15, "##천시": 16, "##툼": 17, "진다고": 18, "유가족": 19, "해선": 20, "호칭": 21, "##제": 22, "무궁": 23, "까다롭": 24, "작인": 25, "##C": 26, "##b": 27, "침몰": 28, "333": 29, "쭈": 30, "내딛": 31, "철없": 32, "출전": 33, "로맨틱": 34, "은영": 35, "다짜고짜": 36, "싹싹": 37, "비애": 38, "허공": 39, "홍역": 40, "##ise": 41, "re": 42, "##스타일": 43, "던졌": 44, "연변": 45, "담벼락": 46, "체육": 47, "##79": 48, "슥": 49, "곶감": 50, "몰두": 51, "종사": 52, "매달렸": 53, "꼬": 54, "딜레마": 55, "딸린": 56, "##게티": 57, "KAI": 58, "NGO": 59, "깜": 60, "워커": 61, "208": 62, "통틀": 63, "승객": 64, "뒷걸음질": 65, "빵": 66, "##훨": 67, "급진": 68, "디바": 69, "귀감": 70, "바바": 71, "쿠팡": 72, "어림": 73, "##자": 74, "석사": 75, "말없이": 76, "：": 77, "유물론": 78, "父": 79, "넘어지": 80, "##사의": 81, "다인": 82, "시안": 83, "바이올린": 84, "##앱": 85, "IT": 86, "벙": 87, "시간": 88, "박경": 89, "NS": 90, "##다고": 91, "재산세": 92, "응용": 93, "氏": 94, "집중호우": 95, "##프스": 96, "민관": 97, "##눴": 98, "턱": 99, "알리바바": 100, "돌연": 101, "기저": 102, "캠퍼스": 103, "공분": 104, "보위": 105, "증발": 106, "간다는": 107, "컴퍼니": 108, "가련": 109, "외상": 110, "압록강": 111, "컴": 112, "CU": 113, "121": 114, "퍼레이드": 115, "취임": 116, "##oney": 117, "##ai": 118, "대법": 119, "##ating": 120, "##둘기": 121, "예찬": 122, "탄약": 123, "기구": 124, "디렉터": 125, "향상": 126, "에르": 127, "##ench": 128, "컨텐츠": 129, "##손가락": 130, "한미": 131, "세울": 132, "졸라": 133, "##뉴얼": 134, "그이": 135, "테크": 136, "사물놀이": 137, "사납": 138, "##넘": 139, "##ㄴ": 140, "두려웠": 141, "남원": 142, "벤": 143, "이름값": 144, "자족": 145, "레코드": 146, "국방부": 147, "패스": 148, "콘크리트": 149, "YS": 150, "역력": 151, "면밀히": 152, "신지애": 153, "고귀": 154, "진땀": 155, "유망주": 156, "후세": 157, "영국": 158, "##평균": 159, "시프트": 160, "소환": 161, "##ky": 162, "써먹": 163, "성우": 164, "##까봐": 165, "농민": 166, "동의": 167, "분쟁": 168, "뜨거웠": 169, "##스턴트": 170, "기장": 171, "마닐라": 172, "엥겔": 173, "Inter": 174, "벼슬": 175, "국익": 176, "227": 177, "훈": 178, "백조": 179, "씁": 180, "근원": 181, "일병": 182, "녁": 183, "구": 184, "##오드": 185, "food": 186, "1967": 187, "##재판": 188, "다케": 189, "##코스": 190, "主": 191, "왼발": 192, "캠벨": 193, "벌레": 194, "관현": 195, "전문학교": 196, "다행": 197, "서대문": 198, "힘든": 199, "아드": 200, "틈틈이": 201, "흐른다": 202, "西": 203, "제과": 204, "압수수색": 205, "시급히": 206, "수료": 207, "손님": 208, "날카": 209, "pre": 210, "감명": 211, "변증": 212, "BO": 213, "타파": 214, "##송이": 215, "서가": 216, "반짝": 217, "추신": 218, "러시아인": 219, "세븐일레븐": 220, "務": 221, "시달": 222, "불똥": 223, "소수자": 224, "퀄": 225, "피안": 226, "교시": 227, "정근우": 228, "하동군": 229, "WTI": 230, "휴먼": 231, "초당": 232, "지부": 233, "gl": 234, "##ac": 235, "##ission": 236, "자문": 237, "데이터": 238, "송신": 239, "골랐": 240, "陽": 241, "##소설": 242, "절대": 243, "전과": 244, "##볶이": 245, "Be": 246, "형이상학": 247, "불쑥": 248, "##지니어": 249, "##자기": 250, "##영상": 251, "##ood": 252, "생쥐": 253, "방침": 254, "테슬라": 255, "트레이드": 256, "일직": 257, "지배자": 258, "잘린": 259, "믄": 260, "##스피": 261, "##iness": 262, "취할": 263, "따끈": 264, "슬그머니": 265, "26": 266, "은근": 267, "박영": 268, "PE": 269, "지바": 270, "비쳐": 271, "전립선": 272, "모건": 273, "혈압": 274, "바그너": 275, "##글": 276, "상국": 277, "세대": 278, "##둘": 279, "##ew": 280, "수원시": 281, "이정재": 282, "##니까": 283, "평화": 284, "##냅니다": 285, "가이드": 286, "과천": 287, "분수령": 288, "와중": 289, "이종범": 290, "들끓": 291, "114": 292, "##광역시": 293, "건설": 294, "##경기": 295, "##스탄": 296, "연령층": 297, "공모": 298, "##k": 299, "고령화": 300, "쌓였": 301, "변함": 302, "집념": 303, "연구개발": 304, "벅찬": 305, "기념품": 306, "재계약": 307, "##어내": 308, "진원지": 309, "문화예술": 310, "추스르": 311, "양성": 312, "뾰족": 313, "마스터플랜": 314, "거닐": 315, "강간": 316, "접한": 317, "Pre": 318, "복수": 319, "발등": 320, "자유투": 321, "임태희": 322, "송강호": 323, "지영": 324, "춥": 325, "04": 326, "신종": 327, "외모": 328, "도서관": 329, "dog": 330, "쿠데타": 331, "키보드": 332, "##불": 333, "##얇": 334, "##단다": 335, "조별": 336, "점원": 337, "##조선": 338, "정예": 339, "처럼": 340, "##㎏": 341, "실사": 342, "감돌": 343, "옥중": 344, "고프": 345, "거버": 346, "가닥": 347, "두리": 348, "스테인리스": 349, "##리트": 350, "스팅": 351, "젠더": 352, "대다수": 353, "스위치": 354, "어려": 355, "x": 356, "She": 357, "자연산": 358, "j": 359, "잔인": 360, "800": 361, "클렌": 362, "지에": 363, "문수": 364, "아이러니": 365, "어우러진": 366, "공립": 367, "축사": 368, "펀치": 369, "정상급": 370, "타임": 371, "열중": 372, "손학규": 373, "사죄": 374, "편식": 375, "오스트레일리아": 376, "치도": 377, "서방": 378, "스즈키": 379, "자는": 380, "엘레": 381, "례": 382, "팽배": 383, "공영주": 384, "##생명": 385, "간염": 386, "##쇠": 387, "지적": 388, "희소": 389, "교도": 390, "절경": 391, "반환": 392, "풍광": 393, "은신": 394, "원동력": 395, "혈액": 396, "##att": 397, "공세": 398, "보가": 399, "리니": 400, "##어넣": 401, "맥도날드": 402, "시끄": 403, "헤어나": 404, "위증": 405, "잠자": 406, "말린": 407, "전면전": 408, "일곱": 409, "스타일": 410, "##ree": 411, "인제": 412, "자료": 413, "소유자": 414, "부서진": 415, "연임": 416, "##보호": 417, "김정은": 418, "149": 419, "部": 420, "이소": 421, "밤하늘": 422, "##카쿠": 423, "FA": 424, "날렵": 425, "강유": 426, "사업단": 427, "나뉜": 428, "리온": 429, "폭발": 430, "병실": 431, "수모": 432, "##즉": 433, "정시": 434, "25": 435, "수여": 436, "고소": 437, "회신": 438, "생식": 439, "낙하": 440, "단락": 441, "깨닫": 442, "여쭤": 443, "빈도": 444, "170": 445, "기관": 446, "개연": 447, "스텔라": 448, "촌": 449, "직설": 450, "구장": 451, "럴": 452, "sk": 453, "묘한": 454, "SU": 455, "아미노산": 456, "할당": 457, "자지": 458, "라던": 459, "##먹": 460, "베스트": 461, "일례": 462, "마초": 463, "뜯어": 464, "베타": 465, "183": 466, "학교장": 467, "선발투수": 468, "최대한": 469, "소득세": 470, "간격": 471, "251": 472, "변종": 473, "유치": 474, "아이디어": 475, "전문의": 476, "처할": 477, "서스펜": 478, "부르": 479, "대중교통": 480, "외할": 481, "비극": 482, "##쩔": 483, "레인보": 484, "협연": 485, "사면": 486, "고자": 487, "역발": 488, "켰": 489, "와이어": 490, "근소": 491, "방영": 492, "설움": 493, "시드": 494, "허름": 495, "##en": 496, "편한": 497, "##썽": 498, "수신자": 499, "였으므로": 500, "땡": 501, "김정": 502, "빠진다": 503, "의경": 504, "위아래": 505, "2300": 506, "출사": 507, "##앓이": 508, "수화기": 509, "휴업": 510, "김춘": 511, "입국": 512, "그리스인": 513, "지형": 514, "사민": 515, "소방관": 516, "불가사의": 517, "온통": 518, "업적": 519, "Part": 520, "##흰": 521, "버라이어티": 522, "미네소타": 523, "제안서": 524, "촉구": 525, "##MCA": 526, "##동원": 527, "세일": 528, "겨누": 529, "최선": 530, "##됨": 531, "다이내믹": 532, "폐단": 533, "##90": 534, "블룸": 535, "정선": 536, "167": 537, "나올지": 538, "사변": 539, "회색": 540, "LTE": 541, "pet": 542, "보선": 543, "##이크": 544, "팥": 545, "누적": 546, "에너지원": 547, "야훼": 548, "위암": 549, "영호": 550, "활용": 551, "카세": 552, "대공": 553, "칭하": 554, "리자": 555, "생사": 556, "##일으": 557, "수증": 558, "인출": 559, "##노이": 560, "교구": 561, "였으나": 562, "갓": 563, "게": 564, "동두천": 565, "인수": 566, "##평동": 567, "##숨에": 568, "경이": 569, "##테르부르크": 570, "간신히": 571, "鄭": 572, "##IL": 573, "식견": 574, "약사": 575, "퇴원": 576, "980": 577, "제단": 578, "드라이브": 579, "등본": 580, "후견인": 581, "Assoc": 582, "소재지": 583, "자체": 584, "종로구": 585, "단숨에": 586, "뺏기": 587, "차돌": 588, "성형외과": 589, "루니": 590, "숙제": 591, "박석민": 592, "조직력": 593, "찬사": 594, "IBM": 595, "특선": 596, "168": 597, "통영": 598, "오수": 599, "버린": 600, "끈기": 601, "오로라": 602, "213": 603, "미세먼지": 604, "작품": 605, "상생": 606, "박차": 607, "내림": 608, "굶주린": 609, "오존": 610, "리카": 611, "캠프": 612, "가져야": 613, "##earch": 614, "눠": 615, "체험": 616, "신사동": 617, "##문화": 618, "당락": 619, "므로": 620, "##르크": 621, "비누": 622, "막바지": 623, "##서니": 624, "민노당": 625, "알카": 626, "최희섭": 627, "방공": 628, "정부": 629, "싸이": 630, "프로젝": 631, "불씨": 632, "이호": 633, "생계": 634, "인도네시아": 635, "알아본": 636, "성폭력": 637, "받아들여졌": 638, "한겨": 639, "애덤": 640, "발급": 641, "택": 642, "##늬": 643, "##엄": 644, "실랑이": 645, "##닳": 646, "연령": 647, "상냥": 648, "셰익스피어": 649, "책임져야": 650, "##PS": 651, "현물": 652, "업체": 653, "##ul": 654, "b": 655, "재우": 656, "일변도": 657, "정녕": 658, "레미콘": 659, "문화": 660, "일개": 661, "드라마": 662, "보시": 663, "이방인": 664, "##㈜": 665, "매듭": 666, "수식": 667, "##꼽": 668, "##f": 669, "1949": 670, "아요": 671, "1958": 672, "동": 673, "치부": 674, "간절히": 675, "##버려": 676, "직격탄": 677, "모집": 678, "##RS": 679, "##소드": 680, "##레스트": 681, "건성": 682, "입회": 683, "줍": 684, "퍼펙트": 685, "市": 686, "고압": 687, "##대성": 688, "성직자": 689, "##i": 690, "걸세": 691, "네거티브": 692, "불행히": 693, "평평": 694, "질까": 695, "자욱": 696, "직권상정": 697, "##TE": 698, "신학기": 699, "之": 700, "바로": 701, "마인": 702, "오래오래": 703, "훈민정음": 704, "장작": 705, "느끼": 706, "##게": 707, "공민": 708, "큼직": 709, "열전": 710, "걱정거리": 711, "For": 712, "변함없이": 713, "맞잡": 714, "재조명": 715, "신호등": 716, "부당": 717, "난제": 718, "##게이": 719, "같이": 720, "뛰쳐나": 721, "투자가": 722, "저버리": 723, "스테이": 724, "떨렸": 725, "한상": 726, "##라이언": 727, "에너지": 728, "끼리": 729, "무침": 730, "을사": 731, "앤서니": 732, "기종": 733, "고인": 734, "르네": 735, "노하우": 736, "녹색당": 737, "당하": 738, "얼른": 739, "##겉": 740, "돌입": 741, "##셀로나": 742, "해도": 743, "빨려": 744, "MW": 745, "이어폰": 746, "루이스": 747, "써": 748, "태평양": 749, "떨어진다": 750, "뒤이": 751, "찾아뵙": 752, "##대표": 753, "정립": 754, "소프트": 755, "사드": 756, "팔찌": 757, "사각지대": 758, "웰빙": 759, "원어민": 760, "소소": 761, "훌쩍": 762, "결단": 763, "세팅": 764, "불가피": 765, "이력": 766, "소운": 767, "산자": 768, "주도": 769, "##나들": 770, "##만치": 771, "물방울": 772, "사소": 773, "약수": 774, "오피스텔": 775, "##지휘": 776, "겠다는": 777, "익스프레스": 778, "다채": 779, "밝": 780, "유래": 781, "라이터": 782, "자": 783, "재발": 784, "내공": 785, "##왼": 786, "##아티아": 787, "고노": 788, "서울특별시": 789, "자켓": 790, "환멸": 791, "흘": 792, "##름": 793, "##oft": 794, "조그": 795, "이케아": 796, "An": 797, "이택": 798, "호박": 799, "김정일": 800, "하남": 801, "중소": 802, "당진": 803, "보합": 804, "반대": 805, "##어리": 806, "대단": 807, "DA": 808, "소위": 809, "##헨": 810, "말소": 811, "먹거리": 812, "##잉": 813, "거지": 814, "252": 815, "안타까웠": 816, "오전": 817, "YMCA": 818, "알펜": 819, "##디트": 820, "쉬웠": 821, "전해진": 822, "물류": 823, "원두": 824, "탱크": 825, "골고루": 826, "63": 827, "에워싸": 828, "무어": 829, "고을": 830, "##느": 831, "ㆍ장": 832, "카다": 833, "실시": 834, "수뇌부": 835, "꼬박": 836, "수시": 837, "##슨": 838, "어설픈": 839, "버디": 840, "승화": 841, "차이나": 842, "철학자": 843, "운동가": 844, "계측": 845, "##자동": 846, "플라워": 847, "##선거": 848, "만회": 849, "권장": 850, "옥수수": 851, "江": 852, "서늘": 853, "논지": 854, "신화": 855, "금액": 856, "배반": 857, "양해각서": 858, "##fer": 859, "군무": 860, "대문": 861, "아도": 862, "막부": 863, "내세워": 864, "식약청": 865, "캐피": 866, "앞치마": 867, "피고인": 868, "라니": 869, "점수": 870, "원하": 871, "사이언스": 872, "로선": 873, "한국학": 874, "##티노": 875, "암행": 876, "물가": 877, "초롱": 878, "불쌍": 879, "하반기": 880, "들어서": 881, "부서장": 882, "사관": 883, "미궁": 884, "친일파": 885, "전해진다": 886, "스파이더맨": 887, "렉": 888, "##잖아": 889, "능": 890, "다방면": 891, "##도르": 892, "PS": 893, "이식": 894, "앱": 895, "##십니까": 896, "조그만": 897, "##콘": 898, "자크": 899, "전업주부": 900, "옛": 901, "중국식": 902, "EC": 903, "대란": 904, "##의회": 905, "특산": 906, "分": 907, "사온": 908, "볼티모어": 909, "약관": 910, "열등": 911, "공리": 912, "신차": 913, "패러다임": 914, "기해": 915, "브루스": 916, "겹치": 917, "절": 918, "생방송": 919, "보온성": 920, "##걸리": 921, "##LC": 922, "읊": 923, "올림": 924, "운영비": 925, "에어컨": 926, "김순": 927, "겹쳐": 928, "다카": 929, "##창호": 930, "광역시": 931, "조셉": 932, "낭독": 933, "했어야": 934, "키워야": 935, "진행": 936, "심판": 937, "##о": 938, "캘": 939, "##억": 940, "훌": 941, "야수": 942, "비워": 943, "-": 944, "청결": 945, "##orge": 946, "체면": 947, "국감": 948, "시애틀": 949, "지현": 950, "선택": 951, "모자란": 952, "으뜸": 953, "출금": 954, "자원": 955, "祖": 956, "들어갔": 957, "정산": 958, "영종도": 959, "추도": 960, "선착순": 961, "돌아서": 962, "별미": 963, "원치": 964, "도읍": 965, "폐회": 966, "우측": 967, "톰슨": 968, "유용": 969, "##머리": 970, "게으름": 971, "폴라": 972, "유상": 973, "##act": 974, "곤경": 975, "놔": 976, "혁신안": 977, "수평선": 978, "지연": 979, "s": 980, "생애": 981, "담겨져": 982, "사극": 983, "오름": 984, "빌릴": 985, "##꼈": 986, "900": 987, "헤어지": 988, "면치": 989, "소총": 990, "인해서": 991, "벼": 992, "고금리": 993, "드러내": 994, "자꾸": 995, "졌으며": 996, "일부": 997, "업": 998, "스팀": 999, "NAS": 1000, "련관": 1001, "지원자": 1002, "안타까움": 1003, "그리스": 1004, "##ont": 1005, "비어": 1006, "##거리": 1007, "##개": 1008, "시댁": 1009, "애리조": 1010, "SPA": 1011, "언론사": 1012, "##웃": 1013, "##셉트": 1014, "로워": 1015, "머리": 1016, "거": 1017, "손아섭": 1018, "스텔": 1019, "도": 1020, "다를까": 1021, "##튼": 1022, "시드니": 1023, "일본인": 1024, "광주은행": 1025, "##60": 1026, "!": 1027, "1966": 1028, "EM": 1029, "##종": 1030, "증자": 1031, "몰려": 1032, "##져": 1033, "아이폰": 1034, "UN": 1035, "14": 1036, "##맵": 1037, "##추세": 1038, "잇따르": 1039, "지은": 1040, "끌어올": 1041, "듈": 1042, "바베": 1043, "대외": 1044, "뛰어가": 1045, "악명": 1046, "파렴치": 1047, "힘써": 1048, "다스리": 1049, "인테": 1050, "열광": 1051, "이해력": 1052, "월드": 1053, "김보경": 1054, "차지": 1055, "웍스": 1056, "정보국": 1057, "##앉": 1058, "봉착": 1059, "##훔": 1060, "점유": 1061, "헤비": 1062, "금남": 1063, "식생활": 1064, "int": 1065, "인들": 1066, "##흐": 1067, "치료사": 1068, "초토": 1069, "매치": 1070, "定": 1071, "닉네임": 1072, "시편": 1073, "김상": 1074, "무심": 1075, "쾌거": 1076, "후끈": 1077, "九": 1078, "놓쳤": 1079, "없": 1080, "180": 1081, "도금": 1082, "정례회": 1083, "매스": 1084, "대마도": 1085, "일면": 1086, "북구": 1087, "##EP": 1088, "봅니다": 1089, "Richard": 1090, "자유주의": 1091, "학기제": 1092, "야간": 1093, "Robert": 1094, "반짝반짝": 1095, "태안군": 1096, "국내선": 1097, "통행료": 1098, "##yp": 1099, "미니스": 1100, "군것질": 1101, "국제": 1102, "受": 1103, "공짜": 1104, "자백": 1105, "##가족": 1106, "생가": 1107, "소희": 1108, "American": 1109, "해병": 1110, "대지": 1111, "산불": 1112, "자형": 1113, "res": 1114, "김진표": 1115, "유구": 1116, "농성": 1117, "치웠": 1118, "올려": 1119, "베드로": 1120, "몰아치": 1121, "붙잡": 1122, "##블": 1123, "가주": 1124, "NO": 1125, "가치관": 1126, "긴": 1127, "후임": 1128, "취합": 1129, "##ice": 1130, "화분": 1131, "손길": 1132, "뇌출혈": 1133, "상차림": 1134, "FBI": 1135, "몸뚱": 1136, "옆구리": 1137, "하워드": 1138, "62": 1139, "급": 1140, "구실": 1141, "모는": 1142, "나누": 1143, "보아": 1144, "챙겨": 1145, "여군": 1146, "북미": 1147, "##urg": 1148, "##ern": 1149, "재결": 1150, "총격": 1151, "9": 1152, "##ike": 1153, "##축": 1154, "##엉이": 1155, "1989": 1156, "월평균": 1157, "프리미어": 1158, "오케스트라": 1159, "전한": 1160, "조목조목": 1161, "제창": 1162, "쇄": 1163, "self": 1164, "##쿤": 1165, "곡성": 1166, "구급대": 1167, "국제법": 1168, "스니": 1169, "##호텔": 1170, "장담": 1171, "잠재우": 1172, "균일": 1173, "호주": 1174, "산화물": 1175, "##전기": 1176, "한수": 1177, "한단": 1178, "용수": 1179, "##전히": 1180, "##페인": 1181, "골키퍼": 1182, "흔들렸": 1183, "선서": 1184, "장성택": 1185, "운항": 1186, "어린이": 1187, "멀티미디어": 1188, "##맞춤": 1189, "복지부": 1190, "말라리아": 1191, "##왓": 1192, "제약": 1193, "##놀림": 1194, "관광버스": 1195, "실형": 1196, "공판": 1197, "##감사": 1198, "또한": 1199, "레이건": 1200, "블록": 1201, "269": 1202, "##신라": 1203, "##벤": 1204, "주희": 1205, "##활": 1206, "가르친다": 1207, "지면": 1208, "머그": 1209, "공익": 1210, "습지": 1211, "Eur": 1212, "집": 1213, "낯설": 1214, "애당초": 1215, "선곡": 1216, "못한다": 1217, "페이스": 1218, "모자이크": 1219, "튜": 1220, "근로": 1221, "##첨": 1222, "Med": 1223, "가솔린": 1224, "##구요": 1225, "유빈": 1226, "의의": 1227, "압수": 1228, "미연": 1229, "피겨": 1230, "휩싸": 1231, "나우": 1232, "누리집": 1233, "먼저": 1234, "미움": 1235, "매장량": 1236, "서투": 1237, "벌일": 1238, "리치": 1239, "베풀": 1240, "염분": 1241, "레아": 1242, "부린": 1243, "한나라당": 1244, "아사": 1245, "스톱": 1246, "무력": 1247, "##주": 1248, "흘러내리": 1249, "진정한": 1250, "입자": 1251, "드린다": 1252, "##무게": 1253, "착잡": 1254, "퇴장": 1255, "다나": 1256, "교복": 1257, "그린다": 1258, "수출국": 1259, "##찼": 1260, "보낸": 1261, "여고": 1262, "달갑": 1263, "처했": 1264, "##칼": 1265, "네이": 1266, "은행장": 1267, "기자단": 1268, "채운": 1269, "콜럼": 1270, "굴하": 1271, "갇히": 1272, "예결": 1273, "공공시설": 1274, "체형": 1275, "기념비": 1276, "정정": 1277, "조연": 1278, "반야": 1279, "명쾌": 1280, "참회": 1281, "잠자코": 1282, "道": 1283, "미역": 1284, "AK": 1285, "적발": 1286, "후": 1287, "안드로이드": 1288, "##rap": 1289, "물레": 1290, "이민호": 1291, "임영": 1292, "메웠": 1293, "꽁": 1294, "피드백": 1295, "구두": 1296, "청": 1297, "배기량": 1298, "미끼": 1299, "변속기": 1300, "먹을거리": 1301, "웅진": 1302, "청정기": 1303, "일교차": 1304, "벌어진다": 1305, "특례법": 1306, "쓸모없": 1307, "양호": 1308, "이남": 1309, "휘감": 1310, "엔지니어": 1311, "고혈압": 1312, "행위": 1313, "호러": 1314, "##ㅡ": 1315, "용인시": 1316, "왜곡": 1317, "여라": 1318, "##문화재": 1319, "료": 1320, "호투": 1321, "태운": 1322, "이해관계": 1323, "가천": 1324, "월등히": 1325, "org": 1326, "1987": 1327, "##스": 1328, "1928": 1329, "분단": 1330, "효력": 1331, "트레이": 1332, "##ess": 1333, "도자기": 1334, "았었": 1335, "예견": 1336, "테레": 1337, "선로": 1338, "날아가": 1339, "400": 1340, "목판": 1341, "수강": 1342, "섭렵": 1343, "결심": 1344, "율동": 1345, "벌금형": 1346, "맞추": 1347, "싸인": 1348, "Ber": 1349, "들러": 1350, "하이닉스": 1351, "##당당": 1352, "선보였": 1353, "올라와": 1354, "에는": 1355, "##데자네이루": 1356, "선덕여왕": 1357, "방탄소년단": 1358, "차장": 1359, "할아버지": 1360, "급부상": 1361, "돌아왔": 1362, "##옐": 1363, "다산": 1364, "소풍": 1365, "아스": 1366, "철도": 1367, "스탠다드": 1368, "言": 1369, "##난방": 1370, "청국": 1371, "확진": 1372, "최인": 1373, "與": 1374, "cat": 1375, "매너": 1376, "망원경": 1377, "영원": 1378, "기울": 1379, "총괄": 1380, "조준": 1381, "다네": 1382, "은메달": 1383, "프라이빗": 1384, "수빈": 1385, "한길": 1386, "서자": 1387, "지론": 1388, "##TN": 1389, "가마": 1390, "회복세": 1391, "##찰청": 1392, "다뤄": 1393, "##바닥": 1394, "ING": 1395, "탐욕": 1396, "불륜": 1397, "##벡": 1398, "멀쩡": 1399, "청약": 1400, "##씽": 1401, "이제야": 1402, "괴롭혔": 1403, "이토록": 1404, "구획": 1405, "루마": 1406, "파우더": 1407, "재청": 1408, "팔짱": 1409, "벼르": 1410, "지훈": 1411, "보상": 1412, "닐슨": 1413, "과학부": 1414, "##ㅏ": 1415, "㎝": 1416, "단골": 1417, "계집애": 1418, "배송": 1419, "때로": 1420, "원회": 1421, "끝난다": 1422, "메커": 1423, "지오": 1424, "나돌": 1425, "마침내": 1426, "국군": 1427, "누군": 1428, "소진": 1429, "빌리": 1430, "##스키": 1431, "난이도": 1432, "결부": 1433, "##교사": 1434, "##캐스트": 1435, "베니": 1436, "초조": 1437, "난방": 1438, "##뜨린": 1439, "##ET": 1440, "가까웠": 1441, "한우": 1442, "빌어먹": 1443, "좋아하": 1444, "Press": 1445, "색조": 1446, "그랬었": 1447, "킨": 1448, "##정": 1449, "롯데시네마": 1450, "가짜": 1451, "피조물": 1452, "담뱃값": 1453, "실효": 1454, "올지": 1455, "달하": 1456, "##메인": 1457, "무겁": 1458, "##uality": 1459, "친": 1460, "회의장": 1461, "심했": 1462, "보람": 1463, "지휘관": 1464, "먹이": 1465, "건수": 1466, "##제국": 1467, "나비": 1468, "승계": 1469, "어디": 1470, "늘어놓": 1471, "섬기": 1472, "##렌스": 1473, "규명": 1474, "양치": 1475, "투자처": 1476, "인플레이션": 1477, "##anc": 1478, "수백만": 1479, "저감": 1480, "폐사": 1481, "협찬": 1482, "162": 1483, "##레인": 1484, "예정": 1485, "##장수": 1486, "게이머": 1487, "부품": 1488, "크리스탈": 1489, "빨아들": 1490, "##악단": 1491, "동천": 1492, "소액": 1493, "소셜": 1494, "돌아와": 1495, "원세": 1496, "##챌": 1497, "프라이버시": 1498, "뻔한": 1499, "지저분": 1500, "벌크": 1501, "흑자": 1502, "어플리케이션": 1503, "예고": 1504, "머지않": 1505, "프란치": 1506, "점철": 1507, "함안": 1508, "문학": 1509, "및": 1510, "비": 1511, "카펫": 1512, "오보": 1513, "같": 1514, "고명": 1515, "호재": 1516, "존치": 1517, "화재": 1518, "함몰": 1519, "악기": 1520, "##철수": 1521, "##─": 1522, "연비": 1523, "상여금": 1524, "카탈로그": 1525, "출렁": 1526, "철도망": 1527, "어째서": 1528, "스코": 1529, "##ym": 1530, "초상": 1531, "양양": 1532, "관절염": 1533, "탐정": 1534, "출간": 1535, "총사": 1536, "서비스업": 1537, "피카소": 1538, "침체": 1539, "자화상": 1540, "두려워": 1541, "수반": 1542, "##im": 1543, "스즈": 1544, "##월드": 1545, "연도": 1546, "코칭스태프": 1547, "카프카": 1548, "갈수록": 1549, "밝혀졌": 1550, "들어온다": 1551, "##멘트": 1552, "LP": 1553, "속초": 1554, "기하": 1555, "디플레이션": 1556, "##맥상": 1557, "분야": 1558, "박준": 1559, "오드리": 1560, "포문": 1561, "아셨": 1562, "계통": 1563, "節": 1564, "잔재": 1565, "해물": 1566, "걸어오": 1567, "삼성생명": 1568, "총재": 1569, "×": 1570, "액티브": 1571, "물거품": 1572, "소각": 1573, "##접": 1574, "미주": 1575, "지배인": 1576, "부응": 1577, "志": 1578, "소리": 1579, "기억나": 1580, "음악가": 1581, "이뤄져야": 1582, "MMORPG": 1583, "공금": 1584, "공화국": 1585, "지폐": 1586, "승": 1587, "뒤처지": 1588, "도급": 1589, "김두관": 1590, "지중": 1591, "김종": 1592, "권했": 1593, "불고기": 1594, "##자치": 1595, "##tice": 1596, "##센터": 1597, "블로킹": 1598, "석회": 1599, "신문사": 1600, "증거": 1601, "##w": 1602, "피아니스트": 1603, "##orld": 1604, "희망퇴직": 1605, "데려갔": 1606, "##세자": 1607, "조직체": 1608, "아쉬웠": 1609, "결실": 1610, "수석": 1611, "##노바": 1612, "돌아온": 1613, "510": 1614, "결": 1615, "스님": 1616, "##높": 1617, "자금": 1618, "상쇄": 1619, "날": 1620, "소스": 1621, "世": 1622, "아차": 1623, "탬": 1624, "전원": 1625, "산": 1626, "펀": 1627, "불안": 1628, "몽골": 1629, "빨개": 1630, "기혼": 1631, "배불": 1632, "뛰어넘": 1633, "##포터": 1634, "타로": 1635, "카시": 1636, "서기관": 1637, "페루": 1638, "중세": 1639, "풀어": 1640, "정벌": 1641, "스타일리시": 1642, "박남": 1643, "정력": 1644, "매춘": 1645, "단말": 1646, "상학": 1647, "##질렀": 1648, "175": 1649, "캠": 1650, "딸기": 1651, "세례": 1652, "케이스": 1653, "마귀": 1654, "##앵": 1655, "tv": 1656, "그렇": 1657, "친수": 1658, "두만강": 1659, "다녀와": 1660, "권역": 1661, "기생": 1662, "평론": 1663, "의논": 1664, "州": 1665, "##다드": 1666, "##옛": 1667, "낙동강": 1668, "허무": 1669, "물러": 1670, "##33": 1671, "안도": 1672, "경제성장": 1673, "은행": 1674, "##교차": 1675, "day": 1676, "기기": 1677, "모은다": 1678, "##횡": 1679, "2005": 1680, "롤": 1681, "북조선": 1682, "뒤떨": 1683, "통": 1684, "물러가": 1685, "민음사": 1686, "빈번히": 1687, "##티모어": 1688, "상급자": 1689, "##부림": 1690, "절제": 1691, "취했": 1692, "파랑": 1693, "벤처": 1694, "율": 1695, "캐스팅": 1696, "장내": 1697, "양현종": 1698, "다면서": 1699, "외교관": 1700, "野": 1701, "##싸": 1702, "윤장": 1703, "으로서": 1704, "폭탄": 1705, "양지": 1706, "끽": 1707, "끓어": 1708, "SBS": 1709, "임차": 1710, "950": 1711, "##라": 1712, "안장": 1713, "是": 1714, "##쿠젠": 1715, "옷차림": 1716, "우리나라": 1717, "이너": 1718, "대법관": 1719, "당대": 1720, "※": 1721, "파프리카": 1722, "해야": 1723, "다큐멘터리": 1724, "실비": 1725, "샅": 1726, "##주곡": 1727, "수질": 1728, "곧바로": 1729, "로지": 1730, "심포": 1731, "고마워요": 1732, "유해": 1733, "끌": 1734, "숙지": 1735, "지낸": 1736, "굴곡": 1737, "##폼": 1738, "센터": 1739, "13": 1740, "아낙": 1741, "대추": 1742, "들이마": 1743, "비염": 1744, "월가": 1745, "주": 1746, "양자": 1747, "디스크": 1748, "배고픔": 1749, "사위": 1750, "소문": 1751, "토대": 1752, "지식인": 1753, "본토": 1754, "##ℓ": 1755, "고동": 1756, "천사": 1757, "퍼스트": 1758, "이르": 1759, "IBK": 1760, "고정": 1761, "면모": 1762, "리먼": 1763, "구제": 1764, "##son": 1765, "화초": 1766, "아비": 1767, "##ko": 1768, "한국야구위원회": 1769, "둠": 1770, "묻힌": 1771, "八": 1772, "이해": 1773, "010": 1774, "마운": 1775, "드넓": 1776, "수학": 1777, "함": 1778, "Cons": 1779, "원서": 1780, "만지": 1781, "광학": 1782, "##을까": 1783, "샴푸": 1784, "UAE": 1785, "수행자": 1786, "굶": 1787, "푸른색": 1788, "고화질": 1789, "벗어나": 1790, "희수": 1791, "도맡": 1792, "##미터": 1793, "지명자": 1794, "땐": 1795, "뭔": 1796, "마리아": 1797, "다급": 1798, "태권도": 1799, "강원": 1800, "광부": 1801, "##국제": 1802, "본다는": 1803, "공적": 1804, "끼칠": 1805, "뉴딜": 1806, "사인": 1807, "망명": 1808, "블": 1809, "종부": 1810, "쏘나타": 1811, "응시": 1812, "On": 1813, "매끄": 1814, "에이": 1815, "테라": 1816, "벌": 1817, "날조": 1818, "선천": 1819, "거버넌스": 1820, "신속": 1821, "심해": 1822, "##든지": 1823, "ㆍ정": 1824, "표": 1825, "萬": 1826, "표류": 1827, "##컨대": 1828, "심화": 1829, "##운": 1830, "중앙일보": 1831, "수용자": 1832, "##성어": 1833, "트로": 1834, "카르": 1835, "황제": 1836, "여럿": 1837, "##종합": 1838, "변함없": 1839, "강전": 1840, "예고편": 1841, "##킨슨": 1842, "사와": 1843, "딸": 1844, "120": 1845, "탐구": 1846, "ppm": 1847, "틸러": 1848, "예쁘": 1849, "금리": 1850, "쌍용": 1851, "##레마": 1852, "스무": 1853, "끊임없": 1854, "급상승": 1855, "김영란": 1856, "건보": 1857, "##띤": 1858, "차우찬": 1859, "소양": 1860, "강수": 1861, "190": 1862, "##iti": 1863, "당뇨": 1864, "긴급조치": 1865, "##힌다": 1866, "정제": 1867, "나지완": 1868, "##클린": 1869, "순교자": 1870, "차선": 1871, "팔자": 1872, "##러웠": 1873, "##뗄": 1874, "복용": 1875, "무관": 1876, "고국": 1877, "용품": 1878, "도시락": 1879, "서산": 1880, "출국": 1881, "청국장": 1882, "학내": 1883, "System": 1884, "##슭": 1885, "가격": 1886, "PGA": 1887, "유희": 1888, "ER": 1889, "괴로움": 1890, "록": 1891, "크리스토퍼": 1892, "##동산": 1893, "지중해": 1894, "부조": 1895, "취약": 1896, "public": 1897, "PD": 1898, "재앙": 1899, "제리": 1900, "코코넛": 1901, "##앤": 1902, "우량": 1903, "연전": 1904, "##풋": 1905, "빼곡": 1906, "고음": 1907, "자리매김": 1908, "현우": 1909, "막국수": 1910, "불법행위": 1911, "빙긋": 1912, "베개": 1913, "꼼수": 1914, "유람선": 1915, "전태": 1916, "실질": 1917, "將": 1918, "잘려": 1919, "눈길": 1920, "해시": 1921, "##멍": 1922, "##윌": 1923, "##학규": 1924, "동대문구": 1925, "대미": 1926, "나진": 1927, "공": 1928, "펑펑": 1929, "여객선": 1930, "ㆍ서": 1931, "빠": 1932, "6000": 1933, "아뢰": 1934, "단국": 1935, "뛴다": 1936, "무시": 1937, "염원": 1938, "1500": 1939, "납품": 1940, "랑": 1941, "날아": 1942, "요번": 1943, "경계심": 1944, "상류층": 1945, "뚤": 1946, "스니커즈": 1947, "놨다": 1948, "안쓰": 1949, "40": 1950, "계획안": 1951, "의외로": 1952, "장부": 1953, "지방": 1954, "충돌": 1955, "BC": 1956, "빼먹": 1957, "지평": 1958, "발주자": 1959, "##부대": 1960, "교육": 1961, "관광": 1962, "이공": 1963, "##헤": 1964, "기와": 1965, "셨": 1966, "##이조": 1967, "물으면": 1968, "엔": 1969, "경정": 1970, "숨져": 1971, "ㆍ구": 1972, "물으니": 1973, "쌍꺼풀": 1974, "변이": 1975, "도성": 1976, "이구": 1977, "졸리": 1978, "촘": 1979, "점막": 1980, "당신": 1981, "결별": 1982, "우상": 1983, "빌딩": 1984, "##텃": 1985, "고령": 1986, "반군": 1987, "속속": 1988, "인슐린": 1989, "분홍": 1990, "##릎": 1991, "##곡절": 1992, "한의사": 1993, "##코트": 1994, "작위": 1995, "납입": 1996, "##st": 1997, "##ㄹ": 1998, "일구": 1999, "밤낮": 2000, "龍": 2001, "소중히": 2002, "화끈": 2003, "이탈리아": 2004, "상대방": 2005, "여태껏": 2006, "##NC": 2007, "하지만": 2008, "##슛": 2009, "퍼": 2010, "그건": 2011, "입출": 2012, "債": 2013, "위협": 2014, "선명": 2015, "##ency": 2016, "귀여": 2017, "파면": 2018, "동등": 2019, "다방": 2020, "저마다": 2021, "##트로": 2022, "컨트롤": 2023, "놀라": 2024, "핀": 2025, "난처": 2026, "경차": 2027, "산속": 2028, "조한": 2029, "출생": 2030, "찍힌": 2031, "일깨": 2032, "거위": 2033, "ㆍ사": 2034, "박현": 2035, "아쉬워하": 2036, "자장": 2037, "잠겼": 2038, "약식": 2039, "아닙니까": 2040, "로션": 2041, "와이파이": 2042, "##서트": 2043, "성의": 2044, "##터": 2045, "제복": 2046, "##땐": 2047, "중얼거렸": 2048, "신협": 2049, "시나": 2050, "거만": 2051, "다수": 2052, "맞춤": 2053, "지퍼": 2054, "Thomas": 2055, "쾌활": 2056, "##а": 2057, "삼성": 2058, "##징어": 2059, "##냇": 2060, "75": 2061, "벌어들": 2062, "시인": 2063, "최초": 2064, "점진": 2065, "##둥이": 2066, "다변": 2067, "##딥": 2068, "친필": 2069, "가르": 2070, "대비책": 2071, "자위": 2072, "묵시": 2073, "도용": 2074, "무용지물": 2075, "산티아고": 2076, "쓴다": 2077, "제의": 2078, "커스": 2079, "시향": 2080, "##진흥": 2081, "ㆍ자": 2082, "선험": 2083, "니": 2084, "##인다": 2085, "컬렉": 2086, "하수": 2087, "##깎": 2088, "선발": 2089, "華": 2090, "##성이": 2091, "Hist": 2092, "상사": 2093, "몰리": 2094, "태우": 2095, "태화강": 2096, "송정": 2097, "누웠": 2098, "손등": 2099, "수련": 2100, "버리": 2101, "기독교": 2102, "순경": 2103, "##러울": 2104, "투표소": 2105, "하천": 2106, "애리": 2107, "따듯": 2108, "川": 2109, "Sec": 2110, "305": 2111, "력사": 2112, "포럼": 2113, "돋보인다": 2114, "경위": 2115, "아쉬움": 2116, "숏": 2117, "탄생": 2118, "얼핏": 2119, "대군": 2120, "이채": 2121, "들": 2122, "출구": 2123, "김이": 2124, "케": 2125, "해치우": 2126, "##소년단": 2127, "꿈틀거리": 2128, "생존": 2129, "막연히": 2130, "희망자": 2131, "부패": 2132, "자칭": 2133, "루머": 2134, "판교": 2135, "유의미": 2136, "괜": 2137, "##대요": 2138, "넘": 2139, "보증서": 2140, "오답": 2141, "저런": 2142, "필승": 2143, "구릉": 2144, "나간다는": 2145, "S": 2146, "편": 2147, "뛸": 2148, "London": 2149, "##융": 2150, "이용해": 2151, "먹스": 2152, "보고": 2153, "199": 2154, "결장": 2155, "##포도": 2156, "오간": 2157, "都": 2158, "부딪혀": 2159, "앞세워": 2160, "가죽": 2161, "리빙": 2162, "들려왔": 2163, "득실": 2164, "##뒀": 2165, "은밀": 2166, "줄어드": 2167, "##사채": 2168, "게임즈": 2169, "녹두": 2170, "진군": 2171, "항변": 2172, "병장": 2173, "자산가": 2174, "##렐": 2175, "마음속": 2176, "첨부": 2177, "전초": 2178, "##쓸": 2179, "의기투합": 2180, "살아날": 2181, "##하이머": 2182, "문방": 2183, "기미": 2184, "OE": 2185, "입주자": 2186, "가속기": 2187, "보성": 2188, "끈다": 2189, "잔금": 2190, "CO": 2191, "영미": 2192, "위험": 2193, "해조류": 2194, "추심": 2195, "응접": 2196, "##착": 2197, "##넌": 2198, "도산": 2199, "허락": 2200, "봉쇄": 2201, "나선다": 2202, "주검": 2203, "mod": 2204, "##벤트": 2205, "탈모": 2206, "세운": 2207, "교육법": 2208, "부락": 2209, "피리": 2210, "##괌": 2211, "방미": 2212, "들이대": 2213, "##te": 2214, "(": 2215, "시비": 2216, "##연시": 2217, "페르난": 2218, "1000": 2219, "렬": 2220, "트윈": 2221, "길드": 2222, "부메": 2223, "##마당": 2224, "인장": 2225, "반격": 2226, "부사관": 2227, "O": 2228, "BG": 2229, "88": 2230, "회로": 2231, "이바": 2232, "선착": 2233, "착용": 2234, "비비드": 2235, "##장이": 2236, "##으니": 2237, "##탁": 2238, "③": 2239, "팬티": 2240, "철학": 2241, "나눔": 2242, "형편": 2243, "아킬레스": 2244, "윈드": 2245, "비자금": 2246, "재판소": 2247, "코치": 2248, "216": 2249, "결의문": 2250, "전시장": 2251, "으리": 2252, "다람쥐": 2253, "민물": 2254, "중얼": 2255, "##ict": 2256, "쇼팽": 2257, "텃": 2258, "문맥": 2259, "즐기": 2260, "이도": 2261, "조속히": 2262, "청라": 2263, "1906": 2264, "##싱": 2265, "빚어지": 2266, "##실베이": 2267, "반나절": 2268, "통고": 2269, "##BA": 2270, "상고": 2271, "풍조": 2272, "적셔": 2273, "잿": 2274, "졸속": 2275, "##IS": 2276, "유니클로": 2277, "다큐": 2278, "##준혁": 2279, "감출": 2280, "노이": 2281, "등재": 2282, "##안경": 2283, "선조": 2284, "엄습": 2285, "원도": 2286, "토이": 2287, "진다": 2288, "훈장": 2289, "##추": 2290, "쿠바": 2291, "즉흥": 2292, "전경": 2293, "삐": 2294, "45": 2295, "변한": 2296, "가늠": 2297, "##호영": 2298, "밟": 2299, "이내": 2300, "출중": 2301, "##맞이": 2302, "안무가": 2303, "담보": 2304, "032": 2305, "백발": 2306, "연말": 2307, "##시스코": 2308, "##빨": 2309, "프로덕션": 2310, "시마": 2311, "쏘아보": 2312, "밀려": 2313, "성남": 2314, "1925": 2315, "순이": 2316, "재협상": 2317, "맹점": 2318, "##s": 2319, "아로": 2320, "다섯": 2321, "곤충": 2322, "ㆍ하": 2323, "대리": 2324, "구술": 2325, "정봉": 2326, "굽히": 2327, "어려움": 2328, "퓰": 2329, "축구": 2330, "##춘": 2331, "남대": 2332, "이호준": 2333, "##이어티": 2334, "##긴다": 2335, "##바바": 2336, "북상": 2337, "커트": 2338, "동식물": 2339, "으로부터": 2340, "모은": 2341, "금발": 2342, "어머니": 2343, "어의": 2344, "혔": 2345, "일으켰": 2346, "개도": 2347, "太": 2348, "승승장구": 2349, "신청서": 2350, "물감": 2351, "한국가스": 2352, "반증": 2353, "##무원": 2354, "순간": 2355, "김관": 2356, "유태": 2357, "학부": 2358, "자위대": 2359, "편집국장": 2360, "플랜": 2361, "##거릴": 2362, "품위": 2363, "동고": 2364, "교포": 2365, "매섭": 2366, "재직": 2367, "발버둥": 2368, "저지를": 2369, "일련": 2370, "병상": 2371, "Tel": 2372, "心": 2373, "##끝": 2374, "곽": 2375, "샘": 2376, "중간고사": 2377, "창작자": 2378, "십일월": 2379, "본부": 2380, "##클리": 2381, "덤핑": 2382, "##황": 2383, "튀김": 2384, "꽃게": 2385, "배워": 2386, "머드": 2387, "치하": 2388, "영영": 2389, "배설물": 2390, "세아": 2391, "산동": 2392, "빈혈": 2393, "이재": 2394, "양배추": 2395, "지자체": 2396, "##out": 2397, "##공화국": 2398, "##ld": 2399, "마취": 2400, "실에": 2401, "정재": 2402, "##운다": 2403, "데려와": 2404, "파파": 2405, "조국": 2406, "향해서": 2407, "Cal": 2408, "붙잡혀": 2409, "기업": 2410, "##은색": 2411, "답변": 2412, "##빔": 2413, "계수": 2414, "극대": 2415, "학도": 2416, "오우": 2417, "못함": 2418, "훤히": 2419, "고요": 2420, "겨냥": 2421, "##쌍": 2422, "##alth": 2423, "매트릭스": 2424, "한동안": 2425, "쾅": 2426, "탄산": 2427, "기거": 2428, "영유": 2429, "피력": 2430, "간통": 2431, "현대증권": 2432, "힘찬": 2433, "관우": 2434, "갈라져": 2435, "사나이": 2436, "일식": 2437, "4400": 2438, "손연재": 2439, "카터": 2440, "미백": 2441, "펼쳤": 2442, "의회": 2443, "설파": 2444, "스코어": 2445, "미네랄": 2446, "갖출": 2447, "유랑": 2448, "큰": 2449, "Pl": 2450, "으로": 2451, "마포": 2452, "##리필": 2453, "아바": 2454, "관심사": 2455, "춘향": 2456, "달라서": 2457, "##듀서": 2458, "알찬": 2459, "07": 2460, "지휘봉": 2461, "군복": 2462, "쁘띠": 2463, "##매도": 2464, "다닌": 2465, "보호": 2466, "##시오": 2467, "의학": 2468, "비너스": 2469, "울트라": 2470, "무선": 2471, "베스트셀러": 2472, "na": 2473, "주된": 2474, "소": 2475, "대주": 2476, "한참": 2477, "##쩌둥": 2478, "IA": 2479, "투쟁": 2480, "고양이": 2481, "바이올리니스트": 2482, "각별히": 2483, "비둘기": 2484, "뿌리치": 2485, "쓰러져": 2486, "팔꿈치": 2487, "##케미칼": 2488, "회피": 2489, "끄집": 2490, "##미르": 2491, "도사리": 2492, "##000": 2493, "##old": 2494, "성문": 2495, "흐릿": 2496, "하자": 2497, "아소": 2498, "옥": 2499, "기민": 2500, "할수록": 2501, "수익": 2502, "복리": 2503, "광교": 2504, "매사추세츠": 2505, "SAT": 2506, "명문화": 2507, "어쩐지": 2508, "발랄": 2509, "##만": 2510, "##뜰": 2511, "랜드": 2512, "페인팅": 2513, "거장": 2514, "닭": 2515, "아닐지": 2516, "일수": 2517, "급물살": 2518, "랭": 2519, "소생": 2520, "##시위": 2521, "중남미": 2522, "입안": 2523, "진영": 2524, "받아": 2525, "골짜기": 2526, "Ⅰ": 2527, "저고리": 2528, "공공연히": 2529, "오이": 2530, "##국사": 2531, "히어로즈": 2532, "멕시코": 2533, "대양": 2534, "##나와": 2535, "나노": 2536, "PER": 2537, "젖소": 2538, "’": 2539, "정홍": 2540, "아줌마": 2541, "場": 2542, "틴": 2543, "숙박": 2544, "인프라": 2545, "LPG": 2546, "##ory": 2547, "분란": 2548, "다비": 2549, "발자취": 2550, "초소": 2551, "제도": 2552, "스니커": 2553, "##민석": 2554, "추": 2555, "족부": 2556, "해진다": 2557, "##릴": 2558, "##쇼": 2559, "열렬": 2560, "죽인": 2561, "실점": 2562, "고학년": 2563, "무실점": 2564, "빠져나왔": 2565, "차체": 2566, "1979": 2567, "됨": 2568, "Vol": 2569, "비석": 2570, "시공사": 2571, "쿠키": 2572, "자물": 2573, "속이": 2574, "##㎞": 2575, "변장": 2576, "주치의": 2577, "라면": 2578, "1960": 2579, "성실히": 2580, "농": 2581, "숨지": 2582, "뻗": 2583, "##sp": 2584, "영남일보": 2585, "칙칙": 2586, "십": 2587, "##앗간": 2588, "반향": 2589, "내과": 2590, "##of": 2591, "##재단": 2592, "냠": 2593, "형사": 2594, "투게더": 2595, "벌벌": 2596, "약해": 2597, "국민체육진흥공단": 2598, "부리": 2599, "순방": 2600, "##통령": 2601, "살핀": 2602, "##BM": 2603, "두레": 2604, "방송인": 2605, "르네상스": 2606, "유영": 2607, "##댕": 2608, "권오": 2609, "광택": 2610, "전자책": 2611, "랴": 2612, "당위": 2613, "바지락": 2614, "촬": 2615, "##플릿": 2616, "국경": 2617, "시즌": 2618, "정우택": 2619, "지역구": 2620, "빈대": 2621, "근대": 2622, "통일부": 2623, "캘리포니아": 2624, "연준": 2625, "덮친": 2626, "내장": 2627, "돌기": 2628, "박영선": 2629, "에피": 2630, "##운드": 2631, "스킬": 2632, "북방": 2633, "아닐": 2634, "이민자": 2635, "렌": 2636, "##아내": 2637, "창녀": 2638, "여든": 2639, "애플": 2640, "교과목": 2641, "출장": 2642, "청소년기": 2643, "상경": 2644, "이별": 2645, "유대": 2646, "하회": 2647, "##틀": 2648, "장녀": 2649, "씁쓸": 2650, "서지": 2651, "##르기": 2652, "근": 2653, "빠져서": 2654, "스테": 2655, "수요": 2656, "되살": 2657, "들렀": 2658, "뮤직": 2659, "ATM": 2660, "시어": 2661, "칠판": 2662, "나마": 2663, "총선": 2664, "Paris": 2665, "심한": 2666, "호평": 2667, "靑": 2668, "##닮": 2669, "미성년": 2670, "과소평가": 2671, "전야": 2672, "MP": 2673, "희한": 2674, "##구장": 2675, "눈여겨볼": 2676, "께": 2677, "##찌": 2678, "아플": 2679, "제임스": 2680, "모든": 2681, "훑": 2682, "묻": 2683, "우려": 2684, "최후": 2685, "뱀파이어": 2686, "##ues": 2687, "몸체": 2688, "제트": 2689, "##세스": 2690, "왔": 2691, "지구촌": 2692, "건립": 2693, "장제": 2694, "망신": 2695, "##노버": 2696, "캐논": 2697, "##봄": 2698, "정몽준": 2699, "고모": 2700, "흑백": 2701, "신뢰감": 2702, "##ible": 2703, "분주": 2704, "동작구": 2705, "윤상": 2706, "##디움": 2707, "##번": 2708, "시흥시": 2709, "아폴로": 2710, "후반전": 2711, "原": 2712, "감초": 2713, "##응": 2714, "터무니": 2715, "인종": 2716, "범행": 2717, "레버쿠젠": 2718, "##몬": 2719, "오트": 2720, "쿠": 2721, "호": 2722, "찾아냈": 2723, "SL": 2724, "예선": 2725, "독살": 2726, "명실": 2727, "기초자치단체": 2728, "##티": 2729, "녹": 2730, "보일지": 2731, "##레이션": 2732, "관리": 2733, "단원": 2734, "샤": 2735, "37": 2736, "알카에다": 2737, "오타": 2738, "잊어버렸": 2739, "由": 2740, "순직": 2741, "희곡": 2742, "아이언맨": 2743, "##ON": 2744, "산업": 2745, "스탠드": 2746, "##납니다": 2747, "도전장": 2748, "숨": 2749, "아무것": 2750, "장타": 2751, "##75": 2752, "잎": 2753, "미술": 2754, "이재오": 2755, "사다리": 2756, "직함": 2757, "농수산물": 2758, "보온": 2759, "빙그레": 2760, "구덩이": 2761, "급격히": 2762, "자고": 2763, "1895": 2764, "변호인": 2765, "##int": 2766, "서포터": 2767, "류중일": 2768, "한없이": 2769, "연가": 2770, "##비엔": 2771, "훼": 2772, "이후": 2773, "엿보": 2774, "하루하루": 2775, "광경": 2776, "독재": 2777, "개구": 2778, "하비": 2779, "As": 2780, "##린트": 2781, "서빙": 2782, "애절": 2783, "했으므로": 2784, "재수사": 2785, "터널": 2786, "고사하고": 2787, "예배": 2788, "참나무": 2789, "빙빙": 2790, "꿈꾼다": 2791, "글로": 2792, "팬택": 2793, "다": 2794, "쿡스": 2795, "접해": 2796, "거든": 2797, "##잣집": 2798, "페놀": 2799, "EU": 2800, "국당": 2801, "속도": 2802, "계약": 2803, "구미시": 2804, "지구력": 2805, "전달": 2806, "페달": 2807, "군자": 2808, "트렁크": 2809, "한국인": 2810, "##통수": 2811, "금고": 2812, "##비용": 2813, "스케일": 2814, "퀄리티": 2815, "중위": 2816, "혜원": 2817, "기른": 2818, "포크": 2819, "분수": 2820, "흥얼": 2821, "확충": 2822, "픽업": 2823, "교관": 2824, "254": 2825, "능률": 2826, "앞선": 2827, "##레일리아": 2828, "호흡": 2829, "제작진": 2830, "트레이딩": 2831, "ac": 2832, "대상자": 2833, "가물": 2834, "승리": 2835, "저울질": 2836, "휘날리": 2837, "##니치": 2838, "##어져": 2839, "힐링": 2840, "##벼": 2841, "인텔": 2842, "태초": 2843, "보험금": 2844, "액정": 2845, "원샷": 2846, "접촉": 2847, "빅토르": 2848, "남한": 2849, "달아오르": 2850, "받치": 2851, "펜실베이니아": 2852, "앨리스": 2853, "경주마": 2854, "BNK": 2855, "로직": 2856, "익혀": 2857, "좋아해서": 2858, "붕어": 2859, "최순": 2860, "뻔": 2861, "독거": 2862, "흔들": 2863, "net": 2864, "봉안": 2865, "한남동": 2866, "##72": 2867, "##렵": 2868, "목격자": 2869, "개미": 2870, "아름": 2871, "##경": 2872, "난타": 2873, "죄책": 2874, "정서": 2875, "디너": 2876, "품종": 2877, "달랐": 2878, "일치": 2879, "겁니까": 2880, "간담회": 2881, "맨체스터": 2882, "발라드": 2883, "벌어졌": 2884, "죽일": 2885, "앉히": 2886, "해전": 2887, "깨끗이": 2888, "우린": 2889, "승마": 2890, "일본군": 2891, "가가": 2892, "##학파": 2893, "합동": 2894, "죽도": 2895, "한껏": 2896, "##기름": 2897, "GT": 2898, "단일팀": 2899, "뮤지엄": 2900, "보이콧": 2901, "나빠": 2902, "배관": 2903, "##년기": 2904, "조끼": 2905, "총영": 2906, "아이고": 2907, "노점상": 2908, "들여다": 2909, "배울": 2910, "International": 2911, "월세": 2912, "고구려": 2913, "비화": 2914, "벌렸": 2915, "당기": 2916, "맵": 2917, "내정자": 2918, "발명품": 2919, "쫀득": 2920, "철광석": 2921, "절실": 2922, "떠올릴": 2923, "##줌": 2924, "포항시": 2925, "전교조": 2926, "글러브": 2927, "솔선수범": 2928, "然": 2929, "##ation": 2930, "약했": 2931, "##ram": 2932, "뒹": 2933, "1998": 2934, "HD": 2935, "지지층": 2936, "분석가": 2937, "노사정": 2938, "발전소": 2939, "NA": 2940, "아낄": 2941, "가명": 2942, "##uf": 2943, "크레인": 2944, "조인": 2945, "DI": 2946, "##평생": 2947, "램프": 2948, "만능": 2949, "형수": 2950, "다지": 2951, "박대": 2952, "애슐리": 2953, "세속": 2954, "##죠": 2955, "연다": 2956, "의뢰": 2957, "코스타": 2958, "조서": 2959, "네스": 2960, "소서": 2961, "면면": 2962, "플리": 2963, "고래": 2964, "##니즘": 2965, "실제로": 2966, "##hip": 2967, "도원": 2968, "열려": 2969, "나빠졌": 2970, "또는": 2971, "사회당": 2972, "외삼촌": 2973, "화천": 2974, "DTI": 2975, "사무소": 2976, "포상": 2977, "문답": 2978, "축산": 2979, "프린터": 2980, "잡힐": 2981, "잔고": 2982, "##정권": 2983, "몰아": 2984, "브래": 2985, "##che": 2986, "제철": 2987, "오열": 2988, "걸으면": 2989, "워크아웃": 2990, "청담동": 2991, "감리": 2992, "##og": 2993, "히트": 2994, "소멸": 2995, "너라": 2996, "건져": 2997, "인적": 2998, "쑤": 2999, "방문객": 3000, "570": 3001, "시진핑": 3002, "미술가": 3003, "##교도": 3004, "수긍": 3005, "##자와": 3006, "편할": 3007, "자급": 3008, "형상": 3009, "교육청": 3010, "신통": 3011, "##라고": 3012, "아디": 3013, "2016": 3014, "문학상": 3015, "조현": 3016, "창건": 3017, "##퍼니": 3018, "꿰뚫": 3019, "드림": 3020, "##트라이트": 3021, "천천": 3022, "논산": 3023, "집행유예": 3024, "##전자": 3025, "연상": 3026, "Kar": 3027, "##추어": 3028, "비밀리": 3029, "##틀랜드": 3030, "장식": 3031, "실험": 3032, "하남시": 3033, "경제난": 3034, "테이프": 3035, "누드": 3036, "##떨": 3037, "놀러": 3038, "630": 3039, "정민": 3040, "테크놀": 3041, "우물": 3042, "면서": 3043, "통한다": 3044, "뜻밖에": 3045, "동계": 3046, "염기": 3047, "체내": 3048, "자아낸다": 3049, "보이": 3050, "자립": 3051, "340": 3052, "상륙작전": 3053, "욤": 3054, "포인트": 3055, "협상": 3056, "전도": 3057, "현대모비스": 3058, "여보": 3059, "동대문": 3060, "아쉬워": 3061, "시늉": 3062, "동호인": 3063, "열연": 3064, "보호막": 3065, "기각": 3066, "드래곤": 3067, "찌푸": 3068, "지냈": 3069, "##체스터": 3070, "중개사": 3071, "##냉": 3072, "회동": 3073, "희생양": 3074, "증여": 3075, "참가국": 3076, "함평": 3077, "이명": 3078, "리트": 3079, "1976": 3080, "보다": 3081, "연장": 3082, "서비스": 3083, "느긋": 3084, "전함": 3085, "았": 3086, "생태계": 3087, "어딜": 3088, "##에너지": 3089, "피서": 3090, "격전지": 3091, "유대교": 3092, "8": 3093, "##힐": 3094, "구조주의": 3095, "여대": 3096, "관리자": 3097, "960": 3098, "개척": 3099, "FI": 3100, "안티": 3101, "인형": 3102, "랜드마크": 3103, "밀렸": 3104, "여백": 3105, "530": 3106, "##뀐": 3107, "관망": 3108, "편성": 3109, "불러": 3110, "구매자": 3111, "앙코르": 3112, "일정액": 3113, "성완": 3114, "뛰어": 3115, "##ute": 3116, "도배": 3117, "먹구름": 3118, "운문": 3119, "##＋": 3120, "지대": 3121, "동반성": 3122, "납득": 3123, "피라미": 3124, "거센": 3125, "항체": 3126, "오르내리": 3127, "수송": 3128, "##ock": 3129, "##ot": 3130, "늘리": 3131, "향연": 3132, "내정": 3133, "오너": 3134, "특집": 3135, "해탈": 3136, "##et": 3137, "직": 3138, "곰탕": 3139, "##갯": 3140, "밀러": 3141, "냐": 3142, "이슬람": 3143, "다윗": 3144, "테두리": 3145, "가르쳐": 3146, "잭슨": 3147, "##리안": 3148, "파이널": 3149, "원부": 3150, "도핑": 3151, "나주시": 3152, "히어로": 3153, "어처구니없": 3154, "박하": 3155, "홍삼": 3156, "문화부": 3157, "저리": 3158, "방위": 3159, "통사": 3160, "생과": 3161, "우승자": 3162, "게을": 3163, "수작업": 3164, "퇴계": 3165, "##치즈": 3166, "호주머니": 3167, "CMA": 3168, "역류": 3169, "프란치스코": 3170, "실러": 3171, "또래": 3172, "김포": 3173, "부적합": 3174, "上": 3175, "청문회": 3176, "암살": 3177, "##LS": 3178, "안토니오": 3179, "여겨졌": 3180, "1941": 3181, "카바": 3182, "구연": 3183, "요구": 3184, "족장": 3185, "허가": 3186, "해낼": 3187, "증명": 3188, "제제": 3189, "##파업": 3190, "뿌듯": 3191, "수백": 3192, "편안히": 3193, "##새": 3194, "구속": 3195, "김승": 3196, "늘어날": 3197, "칼슘": 3198, "방송사": 3199, "굴레": 3200, "활기": 3201, "타이거": 3202, "계기": 3203, "41": 3204, "ㄴ": 3205, "전날": 3206, "가져": 3207, "현행": 3208, "돌릴": 3209, "질문": 3210, "비단": 3211, "합한": 3212, "과징금": 3213, "봉사": 3214, "마드리": 3215, "즐긴다": 3216, "신년사": 3217, "침울": 3218, "선선": 3219, "여가": 3220, "##희": 3221, "통영시": 3222, "##농사": 3223, "몰아가": 3224, "추스": 3225, "##유키": 3226, "##리아": 3227, "史": 3228, "장학금": 3229, "분당": 3230, "파고": 3231, "잡아가": 3232, "##캄": 3233, "도우": 3234, "컵스": 3235, "##쌌": 3236, "자인": 3237, "괜히": 3238, "##의학": 3239, "벨트": 3240, "침략": 3241, "발색": 3242, "도메인": 3243, "작성": 3244, "보건": 3245, "메트로": 3246, "문양": 3247, "넘어간다": 3248, "내보이": 3249, "인명": 3250, "지나가": 3251, "코인": 3252, "평행": 3253, "덧": 3254, "악몽": 3255, "기법": 3256, "##red": 3257, "##펀": 3258, "림": 3259, "위함": 3260, "72": 3261, "영생": 3262, "시한": 3263, "사용량": 3264, "기지": 3265, "맨날": 3266, "안내": 3267, "퍼즐": 3268, "정구": 3269, "실업자": 3270, "노벨상": 3271, "낙엽": 3272, "벤츠": 3273, "본회": 3274, "엄마": 3275, "물의": 3276, "릉": 3277, "마법": 3278, "알아본다": 3279, "국제선": 3280, "찾아온": 3281, "무주택": 3282, "미학": 3283, "미스터리": 3284, "사대부": 3285, "아프리카": 3286, "강대": 3287, "찬양": 3288, "전파": 3289, "저금": 3290, "리조": 3291, "둘러싸": 3292, "놓아두": 3293, "work": 3294, "주걱": 3295, "형법": 3296, "모듈": 3297, "놀려": 3298, "##룽": 3299, "##불리": 3300, "따스": 3301, "궁금증": 3302, "##탐": 3303, "口": 3304, "과반": 3305, "프랜차이즈": 3306, "탄": 3307, "##루미": 3308, "말레이시아": 3309, "거라": 3310, "들여와": 3311, "##사랑": 3312, "나이스": 3313, "관로": 3314, "##카락": 3315, "o": 3316, "대마": 3317, "공양": 3318, "수레": 3319, "포만": 3320, "누": 3321, "##드리히": 3322, "ㆍ일": 3323, "동국": 3324, "휴가철": 3325, "보살펴": 3326, "주의자": 3327, "걸린": 3328, "빗물": 3329, "##의": 3330, "1973": 3331, "##갸": 3332, "##꿨": 3333, "매사": 3334, "앉혀": 3335, "대구": 3336, "포스코": 3337, "할인점": 3338, "##갑": 3339, "曰": 3340, "저조": 3341, "조리법": 3342, "번성": 3343, "김강": 3344, "1926": 3345, "단신": 3346, "##병원": 3347, "##마침": 3348, "쌈": 3349, "마운드": 3350, "껴안": 3351, "함부르크": 3352, "진료비": 3353, "##ux": 3354, "化": 3355, "업인": 3356, "외면": 3357, "장바구니": 3358, "콩쿠르": 3359, "용의자": 3360, "##지먼트": 3361, "East": 3362, "일각": 3363, "##테이너": 3364, "최상": 3365, "발걸음": 3366, "하시": 3367, "기관사": 3368, "액체": 3369, "동해안": 3370, "잇따른": 3371, "소용": 3372, "빈센트": 3373, "일출": 3374, "관문": 3375, "시름": 3376, "끄집어내": 3377, "United": 3378, "어린이날": 3379, "틈타": 3380, "부시장": 3381, "슈퍼": 3382, "맡기": 3383, "치유": 3384, "##노미": 3385, "신탁": 3386, "q": 3387, "붙일": 3388, "1929": 3389, "알로에": 3390, "발사대": 3391, "응수": 3392, "긍지": 3393, "제네바": 3394, "버려야": 3395, "##뿌리": 3396, "천호": 3397, "모유": 3398, "##꿀": 3399, "원비": 3400, "음절": 3401, "베일": 3402, "성대": 3403, "흙": 3404, "온다고": 3405, "굿모닝": 3406, "##L": 3407, "파묻": 3408, "780": 3409, "##교회": 3410, "현재": 3411, "Psych": 3412, "김옥": 3413, "스며": 3414, "큰일": 3415, "관객": 3416, "챔프": 3417, "KIA": 3418, "##는데": 3419, "##32": 3420, "장터": 3421, "고생": 3422, "불렸": 3423, "윌리엄스": 3424, "숨겨": 3425, "비추": 3426, "얽혀": 3427, "품질": 3428, "늙은이": 3429, "가져간": 3430, "05": 3431, "쏠": 3432, "##ich": 3433, "인대": 3434, "##어보": 3435, "##맹": 3436, "##CO": 3437, "추행": 3438, "발전": 3439, "명절": 3440, "돌": 3441, "섭섭": 3442, "그게": 3443, "신학교": 3444, "배고프": 3445, "오작": 3446, "공표": 3447, "노린": 3448, "기다렸": 3449, "환관": 3450, "엔트리": 3451, "옥시": 3452, "방역": 3453, "인접": 3454, "작업장": 3455, "##agement": 3456, "잉글랜드": 3457, "극작가": 3458, "##뿜": 3459, "묘비": 3460, "넷째": 3461, "덤벼": 3462, "컨설팅": 3463, "out": 3464, "연회": 3465, "##기술": 3466, "콜라": 3467, "정부안": 3468, "넘어갈": 3469, "부담": 3470, "메마른": 3471, "##16": 3472, "58": 3473, "횡포": 3474, "달성군": 3475, "##북": 3476, "직원": 3477, "붓다": 3478, "we": 3479, "##맥스": 3480, "의성": 3481, "전염": 3482, "法": 3483, "통지": 3484, "알렉산드리아": 3485, "일간지": 3486, "약화": 3487, "방면": 3488, "le": 3489, "부가가치세": 3490, "나눈다": 3491, "그만둘": 3492, "##단지": 3493, "##le": 3494, "범어": 3495, "아낌없이": 3496, "##투어": 3497, "불통": 3498, "사사건건": 3499, "어렸": 3500, "실추": 3501, "##악산": 3502, "요한": 3503, "진이": 3504, "재편": 3505, "나폴레": 3506, "약효": 3507, "##글라스": 3508, "서정": 3509, "살아남": 3510, "##자지": 3511, "로드맵": 3512, "##판": 3513, "ㆍ경": 3514, "버팀목": 3515, "함축": 3516, "무방비": 3517, "폐막": 3518, "출신": 3519, "의창": 3520, "##갯짓": 3521, "관청": 3522, "이의": 3523, "밸류": 3524, "##포드": 3525, "폼": 3526, "곤란": 3527, "##ost": 3528, "음대": 3529, "입가": 3530, "참고서": 3531, "##er": 3532, "가한": 3533, "쉼터": 3534, "내면": 3535, "붙박이": 3536, "##카이도": 3537, "우주선": 3538, "고통": 3539, "어지": 3540, "스티커": 3541, "타선": 3542, "댕": 3543, "seoul": 3544, "취재원": 3545, "이대로": 3546, "역임": 3547, "관행": 3548, "진솔": 3549, "확신": 3550, "##㎡": 3551, "유토피아": 3552, "연장선": 3553, "대왕": 3554, "1988": 3555, "국제공항": 3556, "기막힌": 3557, "유니크": 3558, "어른": 3559, "뒷면": 3560, "1972": 3561, "소유주": 3562, "안타까": 3563, "##eek": 3564, "한중": 3565, "대폭": 3566, "갑자기": 3567, "북극": 3568, "거룩": 3569, "화나": 3570, "원미": 3571, "벌집": 3572, "흥겨운": 3573, "예술가": 3574, "##아버지": 3575, "##도어": 3576, "늑장": 3577, "처마": 3578, "여드름": 3579, "##고리": 3580, "얼마": 3581, "실종자": 3582, "169": 3583, "챙기": 3584, "꼭꼭": 3585, "깔": 3586, "비해서": 3587, "화요일": 3588, "성찰": 3589, "장엄": 3590, "퇴색": 3591, "PR": 3592, "홍순": 3593, "호기심": 3594, "지배층": 3595, "아미노": 3596, "전환점": 3597, "입장료": 3598, "농산물": 3599, "양악": 3600, "조물": 3601, "몸담": 3602, "Ass": 3603, "주자학": 3604, "포교": 3605, "##멘터리": 3606, "조동": 3607, "##칠성": 3608, "부업": 3609, "걸친": 3610, "뒷모습": 3611, "카이사르": 3612, "돌려주": 3613, "간소": 3614, "부화": 3615, "sm": 3616, "비친": 3617, "섹션": 3618, "칠곡군": 3619, "컷오프": 3620, "활황": 3621, "약재": 3622, "팔월": 3623, "51": 3624, "191": 3625, "##중일": 3626, "왜냐": 3627, "새벽": 3628, "##돌": 3629, "공고히": 3630, "일자": 3631, "친서": 3632, "##베이스": 3633, "포스팅": 3634, "인위": 3635, "위주": 3636, "허정무": 3637, "애국심": 3638, "##ex": 3639, "주교": 3640, "온기": 3641, "아닌지": 3642, "차종": 3643, "될": 3644, "의례": 3645, "말끔히": 3646, "이하": 3647, "이청": 3648, "아티": 3649, "레이디스": 3650, "병살": 3651, "건물": 3652, "##ove": 3653, "##찹": 3654, "설계사": 3655, "후대": 3656, "CN": 3657, "이윽": 3658, "허허": 3659, "봐서": 3660, "##닐": 3661, "찾아볼": 3662, "소식통": 3663, "##조사": 3664, "##농": 3665, "제정신": 3666, "크나큰": 3667, "대한": 3668, "안간": 3669, "주상": 3670, "소견": 3671, "성벽": 3672, "슬프": 3673, "거니": 3674, "##е": 3675, "떼": 3676, "충청남도": 3677, "##단": 3678, "본": 3679, "민변": 3680, "인포": 3681, "프로세서": 3682, "떡국": 3683, "손익계산서": 3684, "이민": 3685, "승부차기": 3686, "##86": 3687, "##파리": 3688, "1907": 3689, "진격": 3690, "튼튼": 3691, "다저스": 3692, "걸맞": 3693, "211": 3694, "##엑": 3695, "硏": 3696, "Ox": 3697, "고마움": 3698, "변론": 3699, "Sp": 3700, "마리오": 3701, "찾아내": 3702, "밑바닥": 3703, "부풀려": 3704, "내려가": 3705, "에피소드": 3706, "털어": 3707, "문항": 3708, "풍류": 3709, "이우": 3710, "진희": 3711, "세계사": 3712, "##십리": 3713, "혁명": 3714, "싸워야": 3715, "읍성": 3716, "모스크바": 3717, "##책": 3718, "벌어질": 3719, "제설": 3720, "다섯째": 3721, "장거리": 3722, "바르셀로나": 3723, "토스": 3724, "효도": 3725, "몰려들": 3726, "로그": 3727, "종종": 3728, "##네트": 3729, "포위": 3730, "고루": 3731, "성완종": 3732, "그래서인지": 3733, "구민": 3734, "눈물": 3735, "박유": 3736, "##로프": 3737, "미련": 3738, "엇갈리": 3739, "##cal": 3740, "우리": 3741, "골재": 3742, "최단": 3743, "기소": 3744, "사지": 3745, "행세": 3746, "##줬": 3747, "비안": 3748, "저절로": 3749, "옮겨야": 3750, "나선다는": 3751, "부유": 3752, "##봇": 3753, "섀": 3754, "쫓기": 3755, "##리나": 3756, "로열": 3757, "종아리": 3758, "유모차": 3759, "칭기즈": 3760, "디제이": 3761, "경관": 3762, "삽": 3763, "##남도": 3764, "정해졌": 3765, "밝혀": 3766, "경제자유구역": 3767, "구부": 3768, "거래소": 3769, "건축학": 3770, "되돌려": 3771, "해체": 3772, "문어": 3773, "##ps": 3774, "계상": 3775, "밑천": 3776, "경제": 3777, "간질": 3778, "##혜정": 3779, "256": 3780, "민경": 3781, "포착": 3782, "어플": 3783, "기계": 3784, "샤오": 3785, "불펜": 3786, "##MA": 3787, "드러나": 3788, "##삶": 3789, "묻혀": 3790, "노원": 3791, "차후": 3792, "출품": 3793, "임대료": 3794, "얘": 3795, "갈아": 3796, "에이지": 3797, "##모어": 3798, "틸": 3799, "모닝": 3800, "光": 3801, "IQ": 3802, "감독": 3803, "세계인": 3804, "배기": 3805, "울진": 3806, "세부": 3807, "##론": 3808, "##두르": 3809, "쓰레기통": 3810, "존경심": 3811, "프란체": 3812, "모험": 3813, "##끼": 3814, "강팀": 3815, "일원": 3816, "이해도": 3817, "간": 3818, "어지러운": 3819, "##어마": 3820, "노란색": 3821, "이춘": 3822, "##ㅣ": 3823, "탄수": 3824, "깐깐": 3825, "박윤": 3826, "고관": 3827, "선재": 3828, "##기획": 3829, "성진": 3830, "넘긴": 3831, "부지런히": 3832, "노랫": 3833, "Mac": 3834, "중앙당": 3835, "##정원": 3836, "니즈": 3837, "방조": 3838, "비트": 3839, "허다": 3840, "반동": 3841, "##샤오": 3842, "규제": 3843, "감탄": 3844, "외침": 3845, "저하": 3846, "극동": 3847, "##양": 3848, "적대": 3849, "호사": 3850, "대립": 3851, "자오": 3852, "눌러": 3853, "의대": 3854, "고강": 3855, "밭": 3856, "잠기": 3857, "##ime": 3858, "경산시": 3859, "굴": 3860, "##어난다": 3861, "强": 3862, "메릴": 3863, "골칫거리": 3864, "시그": 3865, "올리": 3866, "아시아나항공": 3867, "갔었": 3868, "##로호": 3869, "지리": 3870, "청산": 3871, "표출": 3872, "경주시": 3873, "어리둥절": 3874, "즐거워": 3875, "짝사랑": 3876, "김성수": 3877, "발기인": 3878, "갈치": 3879, "부적": 3880, "영결식": 3881, "뒤집어": 3882, "희망": 3883, "와야": 3884, "##펠": 3885, "##곡리": 3886, "물려주": 3887, "인민": 3888, "헤게": 3889, "1921": 3890, "비대": 3891, "검증": 3892, "생소": 3893, "산길": 3894, "창간": 3895, "씨발": 3896, "자녀": 3897, "##대왕": 3898, "바흐": 3899, "##mp": 3900, "계획서": 3901, "임신부": 3902, "아산시": 3903, "내려": 3904, "성리학": 3905, "수해": 3906, "정숙": 3907, "##변속기": 3908, "##or": 3909, "킥": 3910, "벌거벗": 3911, "로페": 3912, "##ember": 3913, "아직": 3914, "290": 3915, "응시자": 3916, "하얀": 3917, "화법": 3918, "드로잉": 3919, "화교": 3920, "어떨": 3921, "트렌디": 3922, "윤병": 3923, "수월": 3924, "시간대": 3925, "솔직히": 3926, "##간접": 3927, "숟": 3928, "아다": 3929, "재밌": 3930, "기다려": 3931, "발효": 3932, "##저스": 3933, "혜주": 3934, "도망치": 3935, "치러": 3936, "가려": 3937, "동방": 3938, "##웰": 3939, "위스": 3940, "세계유산": 3941, "빛났": 3942, "깨달": 3943, "집행정지": 3944, "안이": 3945, "월드컵": 3946, "##ual": 3947, "##42": 3948, "명곡": 3949, "##임스": 3950, "##가지": 3951, "처칠": 3952, "이정표": 3953, "순화": 3954, "신중히": 3955, "따내": 3956, "재래식": 3957, "식기": 3958, "바라본": 3959, "기재": 3960, "LNG": 3961, "자조": 3962, "이근호": 3963, "##노": 3964, "##강": 3965, "가져갔": 3966, "빠짐없이": 3967, "Her": 3968, "섣불리": 3969, "해석": 3970, "교두": 3971, "상수도": 3972, "컨디션": 3973, "헤쳐": 3974, "##만두": 3975, "소설": 3976, "##37": 3977, "보라색": 3978, "##6": 3979, "그런가": 3980, "뜨거": 3981, "꼼짝": 3982, "박삼": 3983, "변기": 3984, "세로": 3985, "짜장면": 3986, "궁핍": 3987, "최하": 3988, "휘하": 3989, "일궈": 3990, "몰린": 3991, "Do": 3992, "##아차": 3993, "아보카도": 3994, "결렬": 3995, "총경": 3996, "16": 3997, "나폴리": 3998, "열량": 3999, "조각가": 4000, "확성기": 4001, "##시대회": 4002, "어학": 4003, "골문": 4004, "법무": 4005, "여주인": 4006, "학술": 4007, "종자": 4008, "한결": 4009, "##협회": 4010, "창밖": 4011, "Oxford": 4012, "브뤼셀": 4013, "선형": 4014, "구명": 4015, "재학": 4016, "가리": 4017, "SN": 4018, "뉜": 4019, "성년": 4020, "Center": 4021, "##기능": 4022, "수역": 4023, "추미애": 4024, "##콜": 4025, "기부": 4026, "빌보드": 4027, "껄끄": 4028, "되물": 4029, "##탱크": 4030, "갑갑": 4031, "경솔": 4032, "약자": 4033, "피디": 4034, "백만": 4035, "드라이": 4036, "no": 4037, "표절": 4038, "사춘기": 4039, "ml": 4040, "기나긴": 4041, "##레이드": 4042, "##운서": 4043, "광채": 4044, "독스": 4045, "전두환": 4046, "캐릭": 4047, "##그래": 4048, "머릿": 4049, "##느리": 4050, "박스": 4051, "##퍼": 4052, "통조림": 4053, "울진군": 4054, "성심": 4055, "등장": 4056, "바벨": 4057, "현영": 4058, "여유": 4059, "이찬": 4060, "병사": 4061, "議": 4062, "##막": 4063, "파탄": 4064, "숨겨진": 4065, "아재": 4066, "농심": 4067, "선수": 4068, "클라크": 4069, "장만": 4070, "##로라": 4071, "무형": 4072, "걸러": 4073, "체지방": 4074, "직선": 4075, "##번에": 4076, "결론": 4077, "연고": 4078, "노마": 4079, "손잡이": 4080, "##제당": 4081, "나영": 4082, "두드러지": 4083, "##퍼런스": 4084, "갈랐": 4085, "구심점": 4086, "김대": 4087, "대구시": 4088, "이을": 4089, "통곡": 4090, "단통": 4091, "결말": 4092, "이다": 4093, "위아": 4094, "미시": 4095, "삭발": 4096, "시세": 4097, "어려웠": 4098, "유비": 4099, "열혈": 4100, "pp": 4101, "존스": 4102, "흠집": 4103, "블랑": 4104, "볼까": 4105, "시선": 4106, "창조": 4107, "김경": 4108, "처음": 4109, "다크": 4110, "##nd": 4111, "궐": 4112, "매끈": 4113, "로버": 4114, "시스템": 4115, "생동": 4116, "내버려": 4117, "디저트": 4118, "부도": 4119, "리비": 4120, "순차": 4121, "김천": 4122, "고수": 4123, "살라": 4124, "##테면": 4125, "##DP": 4126, "화백": 4127, "굴러": 4128, "주간지": 4129, "지민": 4130, "앵글": 4131, "1923": 4132, "지불": 4133, "진입": 4134, "여왕": 4135, "##커스": 4136, "세요": 4137, "##싸움": 4138, "tr": 4139, "대통령령": 4140, "KBO": 4141, "En": 4142, "텐데": 4143, "체험학습": 4144, "브루": 4145, "셈": 4146, "시점": 4147, "부가": 4148, "정대": 4149, "분말": 4150, "리": 4151, "##마스": 4152, "애경": 4153, "바꿀": 4154, "진리": 4155, "黨": 4156, "피클": 4157, "##ode": 4158, "선발전": 4159, "주경": 4160, "보상금": 4161, "##명": 4162, "일제히": 4163, "부활": 4164, "계셨": 4165, "##ouse": 4166, "협곡": 4167, "현기": 4168, "MS": 4169, "독설": 4170, "김한": 4171, "처장": 4172, "##테르": 4173, "최민": 4174, "##텐츠": 4175, "소비": 4176, "항균": 4177, "륙": 4178, "##이브": 4179, "조속": 4180, "##데르": 4181, "##ther": 4182, "낭만": 4183, "원정대": 4184, "##선미": 4185, "펴냄": 4186, "##거스": 4187, "컨테이너선": 4188, "권": 4189, "웨스트": 4190, "##지엄": 4191, "##95": 4192, "찹쌀": 4193, "##㎖": 4194, "광장": 4195, "상하": 4196, "##iew": 4197, "##두근": 4198, "천시": 4199, "##넥": 4200, "알라딘": 4201, "비트코인": 4202, "고택": 4203, "학사": 4204, "뒤": 4205, "##냅": 4206, "##OS": 4207, "부총재": 4208, "대안": 4209, "찜": 4210, "오감": 4211, "from": 4212, "전골": 4213, "창덕궁": 4214, "둔치": 4215, "주파수": 4216, "안색": 4217, "김건": 4218, "교통수단": 4219, "맞불": 4220, "##첫": 4221, "하나님": 4222, "금할": 4223, "타스": 4224, "밤중": 4225, "광고비": 4226, "타당": 4227, "라운드": 4228, "완": 4229, "##성": 4230, "##31": 4231, "공포감": 4232, "정치가": 4233, "##거품": 4234, "왕후": 4235, "부르주": 4236, "지켜봐야": 4237, "키스": 4238, "##무사": 4239, "접": 4240, "1986": 4241, "씀": 4242, "한사": 4243, "술집": 4244, "강원랜드": 4245, "이부": 4246, "정형": 4247, "말년": 4248, "##방위": 4249, "충원": 4250, "정준": 4251, "밀려났": 4252, "껍": 4253, "수감": 4254, "신흥": 4255, "적폐": 4256, "데이비드": 4257, "민우": 4258, "院": 4259, "오렌": 4260, "기뻐하": 4261, "소형주": 4262, "지낸다": 4263, "드라": 4264, "도라지": 4265, "급락": 4266, "알레": 4267, "기관지": 4268, "##ical": 4269, "뮤지컬": 4270, "빼내": 4271, "봄바람": 4272, "합천": 4273, "랐": 4274, "버티": 4275, "완비": 4276, "김성태": 4277, "민속": 4278, "現": 4279, "브라우저": 4280, "딕": 4281, "##노조": 4282, "틀림": 4283, "넓혀": 4284, "일본식": 4285, "어찌나": 4286, "발소리": 4287, "돼온": 4288, "七": 4289, "학자": 4290, "선악": 4291, "입혀": 4292, "##all": 4293, "일당": 4294, "##기술센터": 4295, "흰": 4296, "야시장": 4297, "평원": 4298, "멍한": 4299, "일환": 4300, "Go": 4301, "얌전": 4302, "우편물": 4303, "stud": 4304, "백지화": 4305, "일정": 4306, "르노": 4307, "연필": 4308, "##71": 4309, "격차": 4310, "NFC": 4311, "##83": 4312, "왕국": 4313, "케임브리지": 4314, "한옥": 4315, "성장": 4316, "낮추": 4317, "월별": 4318, "소다": 4319, "아일랜드": 4320, "매서운": 4321, "韓": 4322, "만두": 4323, "누진": 4324, "남강": 4325, "최고가": 4326, "코스트": 4327, "##ork": 4328, "기제": 4329, "족쇄": 4330, "이만": 4331, "신한은행": 4332, "대통": 4333, "平": 4334, "지프": 4335, "이언": 4336, "본선": 4337, "인터뷰": 4338, "##4": 4339, "##니시": 4340, "철강": 4341, "##제르": 4342, "어용": 4343, "연수구": 4344, "난다는": 4345, "심근": 4346, "##fit": 4347, "박진": 4348, "김두한": 4349, "에게": 4350, "자살": 4351, "미숙": 4352, "닛산": 4353, "1956": 4354, "1937": 4355, "게이트": 4356, "김영철": 4357, "두근거리": 4358, "##oh": 4359, "랄": 4360, "진하": 4361, "발라": 4362, "뻔하": 4363, "##더미": 4364, "쿠페": 4365, "항만": 4366, "돌아간다": 4367, "셔터": 4368, "복숭아": 4369, "어선": 4370, "항우": 4371, "모란": 4372, "##겁": 4373, "당사자": 4374, "상해": 4375, "교역": 4376, "몸뚱이": 4377, "케익": 4378, "동료": 4379, "결과": 4380, "ㅅ": 4381, "답보": 4382, "획기": 4383, "비벼": 4384, "성현": 4385, "##마는": 4386, "벼룩": 4387, "만족도": 4388, "클릭": 4389, "일어났": 4390, "퍼붓": 4391, "되살려": 4392, "스피": 4393, "틴트": 4394, "기준치": 4395, "##곁": 4396, "해충": 4397, "올라타": 4398, "##각색": 4399, "만호": 4400, "##란드": 4401, "맞춘다": 4402, "time": 4403, "인식": 4404, "고대": 4405, "##cht": 4406, "지키": 4407, "인삼": 4408, "能": 4409, "##믹": 4410, "미모": 4411, "##25": 4412, "성기": 4413, "예측": 4414, "정월": 4415, "녹취": 4416, "격앙": 4417, "##조리": 4418, "살수": 4419, "라며": 4420, "짜장": 4421, "자서": 4422, "##슬링": 4423, "손해": 4424, "살펴본다": 4425, "주심": 4426, "구조": 4427, "약품": 4428, "1905": 4429, "내리막": 4430, "기독": 4431, "유니버": 4432, "##꿋": 4433, "##드름": 4434, "지켜온": 4435, "하물": 4436, "유력": 4437, "kW": 4438, "전병헌": 4439, "심": 4440, "시월": 4441, "스크린": 4442, "佛": 4443, "장전": 4444, "##뿐": 4445, "체대": 4446, "##일러": 4447, "##해야": 4448, "春": 4449, "누런": 4450, "관원": 4451, "시트콤": 4452, "백승": 4453, "전반기": 4454, "##세이": 4455, "특정": 4456, "특수": 4457, "1950": 4458, "대상": 4459, "교총": 4460, "운임": 4461, "##거름": 4462, "전산": 4463, "박헌영": 4464, "삼국": 4465, "들려주": 4466, "강태": 4467, "쏘": 4468, "##ivers": 4469, "포석": 4470, "##정부": 4471, "권영": 4472, "##소": 4473, "탁": 4474, "재추": 4475, "짬": 4476, "##톨": 4477, "##ium": 4478, "밝혀질": 4479, "인류": 4480, "##제이": 4481, "조선업": 4482, "##애플": 4483, "존엄": 4484, "톱스타": 4485, "##비아": 4486, "자판기": 4487, "옮겨": 4488, "양수": 4489, "떠난다": 4490, "불황": 4491, "터": 4492, "민감": 4493, "스포트라이트": 4494, "우울증": 4495, "옐로": 4496, "MK": 4497, "325": 4498, "변별": 4499, "직물": 4500, "소구": 4501, "꽃": 4502, "한다거나": 4503, "주방": 4504, "##보도": 4505, "수줍": 4506, "원내대표": 4507, "궁극": 4508, "낙타": 4509, "풍부": 4510, "##각형": 4511, "##월일": 4512, "실례": 4513, "순교": 4514, "##갈색": 4515, "두들겨": 4516, "전통주": 4517, "스트로": 4518, "일사": 4519, "베이": 4520, "##뜯": 4521, "##용수": 4522, "자자": 4523, "동갑": 4524, "불꽃놀이": 4525, "발현": 4526, "벌칙": 4527, "귀여움": 4528, "건방": 4529, "도전": 4530, "장준": 4531, "퀴": 4532, "뒤돌": 4533, "수억": 4534, "렐": 4535, "부담없이": 4536, "하오": 4537, "인화": 4538, "미남": 4539, "디어": 4540, "##enc": 4541, "##춧": 4542, "승전": 4543, "샴": 4544, "윌리": 4545, "주어져": 4546, "풀릴": 4547, "등판": 4548, "##afe": 4549, "수두룩": 4550, "FIFA": 4551, "편찬": 4552, "보였": 4553, "장마": 4554, "쟁취": 4555, "수부": 4556, "통기": 4557, "차인": 4558, "괴담": 4559, "취해야": 4560, "좌상": 4561, "허탈": 4562, "배": 4563, "반전": 4564, "##스톤": 4565, "턱없이": 4566, "쿠르드": 4567, "충전기": 4568, "데니스": 4569, "저우": 4570, "##폈": 4571, "하영": 4572, "기어": 4573, "늑": 4574, "이과": 4575, "금강": 4576, "226": 4577, "##범죄": 4578, "쿡": 4579, "복면": 4580, "찢어지": 4581, "최상위": 4582, "늘어져": 4583, "산부인과": 4584, "시범": 4585, "章": 4586, "전립": 4587, "거기": 4588, "볼펜": 4589, "부실": 4590, "풍산": 4591, "##그네": 4592, "고아원": 4593, "##프레소": 4594, "##구역": 4595, "원고": 4596, "오히려": 4597, "북한": 4598, "자루": 4599, "리콜": 4600, "밴": 4601, "장마철": 4602, "일컬": 4603, "##바라": 4604, "세기": 4605, "시작": 4606, "끊임없이": 4607, "##택": 4608, "이동해": 4609, "리스": 4610, "씻겨": 4611, "##트롤": 4612, "자동": 4613, "차릴": 4614, "포고": 4615, "QM": 4616, "부위": 4617, "빅토리아": 4618, "아니하": 4619, "〈": 4620, "블라디": 4621, "UHD": 4622, "음원": 4623, "MC": 4624, "##궂": 4625, "미신": 4626, "오리지널": 4627, "##로이": 4628, "티스": 4629, "##다이": 4630, "실태": 4631, "초보": 4632, "십상": 4633, "거꾸로": 4634, "욕": 4635, "오른발": 4636, "만사": 4637, "체득": 4638, "##덮": 4639, "콘테": 4640, "망하": 4641, "시부모": 4642, "목재": 4643, "간극": 4644, "양육": 4645, "##꼬리": 4646, "간접": 4647, "껏": 4648, "은밀히": 4649, "남산": 4650, "지병": 4651, ";": 4652, "의술": 4653, "카": 4654, "대파": 4655, "매도": 4656, "실상": 4657, "유나이티": 4658, "##밭": 4659, "컬링": 4660, "올라가": 4661, "피치": 4662, "충성심": 4663, "선미": 4664, "유로존": 4665, "의한": 4666, "장유": 4667, "성주": 4668, "굳": 4669, "207": 4670, "##약": 4671, "수입": 4672, "질감": 4673, "레이어": 4674, "빼앗겼": 4675, "맞아": 4676, "여야": 4677, "소리치": 4678, "산채": 4679, "틀리": 4680, "청사": 4681, "아울": 4682, "##아시아": 4683, "알려졌": 4684, "산사": 4685, "##ti": 4686, "트렌": 4687, "경외": 4688, "만장": 4689, "오": 4690, "대체로": 4691, "대수": 4692, "1908": 4693, "대각": 4694, "바래": 4695, "470": 4696, "요르단": 4697, "웃도": 4698, "공직": 4699, "등대": 4700, "미혼": 4701, "야만": 4702, "공연": 4703, "학대": 4704, "민망": 4705, "제지": 4706, "體": 4707, "바겐": 4708, "##투스": 4709, "##나물": 4710, "원희": 4711, "##민주": 4712, "##하르트": 4713, "새삼": 4714, "윤영": 4715, "그만두": 4716, "불시": 4717, "붉": 4718, "관계사": 4719, "##나도": 4720, "획": 4721, "러너": 4722, "대면": 4723, "조조": 4724, "기록원": 4725, "마친": 4726, "지배력": 4727, "가이드라인": 4728, "두만": 4729, "비유": 4730, "##저리": 4731, "##랐": 4732, "뭡니까": 4733, "피어나": 4734, "침수": 4735, "거뜬": 4736, "지수": 4737, "위계": 4738, "일절": 4739, "사거리": 4740, "잡": 4741, "포드": 4742, "우체국": 4743, "퐁": 4744, "느니": 4745, "라구요": 4746, "토론회": 4747, "성희": 4748, "방산": 4749, "밸리": 4750, "위화": 4751, "인": 4752, "툼": 4753, "둘레": 4754, "소설가": 4755, "인권위": 4756, "악법": 4757, "반칙": 4758, "\"": 4759, "늘어": 4760, "이온": 4761, "모독": 4762, "원인": 4763, "동수": 4764, "주택": 4765, "사유": 4766, "통행": 4767, "한약재": 4768, "허위": 4769, "축산업": 4770, "암울": 4771, "##돼": 4772, "##셈": 4773, "일러": 4774, "두드": 4775, "바꾼": 4776, "열등감": 4777, "관직": 4778, "권유": 4779, "심리": 4780, "##상조": 4781, "##당초": 4782, "##일드": 4783, "다국적": 4784, "and": 4785, "##유럽": 4786, "##적인": 4787, "학문": 4788, "일으키": 4789, "프랭크": 4790, "풀코스": 4791, "걸리": 4792, "01": 4793, "날개": 4794, "조각상": 4795, "상반기": 4796, "움직였": 4797, "오를": 4798, "어여": 4799, "민노총": 4800, "게나": 4801, "힘껏": 4802, "##볍": 4803, "##꼬": 4804, "사생활": 4805, "프롤레타리아": 4806, "넘나들": 4807, "포도주": 4808, "소자": 4809, "열망": 4810, "펼쳐졌": 4811, "성모": 4812, "급급": 4813, "메아리": 4814, "##버트": 4815, "낯": 4816, "인파": 4817, "아프가": 4818, "핫라인": 4819, "서서히": 4820, "[": 4821, "##ondon": 4822, "비꼬": 4823, "금융업": 4824, "블로거": 4825, "##bl": 4826, "미안": 4827, "##ave": 4828, "본능": 4829, "홈경기": 4830, "개년": 4831, "원형": 4832, "##ry": 4833, "필하": 4834, "market": 4835, "부츠": 4836, "단연": 4837, "모신": 4838, "과오": 4839, "무인기": 4840, "퍼시": 4841, "떠올려": 4842, "카카오톡": 4843, "빗방울": 4844, "##애나": 4845, "이영": 4846, "IB": 4847, "테니스": 4848, "성추": 4849, "수의사": 4850, "##승부": 4851, "시리아": 4852, "##넛": 4853, "빗자루": 4854, "공식": 4855, "스페인": 4856, "기르": 4857, "번복": 4858, "명랑": 4859, "⠀⠀⠀": 4860, "김세": 4861, "원재료": 4862, "##ology": 4863, "1913": 4864, "인성": 4865, "살살": 4866, "군사": 4867, "당한다": 4868, "전법": 4869, "동맹국": 4870, "암흑": 4871, "준거": 4872, "조폭": 4873, "이듬": 4874, "검술": 4875, "EP": 4876, "예쁜": 4877, "경멸": 4878, "##빠": 4879, "출정식": 4880, "전성기": 4881, "##의원": 4882, "참고": 4883, "여객": 4884, "지천": 4885, "##ct": 4886, "로사": 4887, "영": 4888, "##수기": 4889, "최하위": 4890, "경복": 4891, "##까": 4892, "평했": 4893, "적나라": 4894, "##멘스": 4895, "양동근": 4896, "보건복": 4897, "##ce": 4898, "유족": 4899, "정박": 4900, "강경파": 4901, "보컬": 4902, "불임": 4903, "뒤돌아보": 4904, "78": 4905, "청동": 4906, "##열": 4907, "플로리다": 4908, "땜": 4909, "한다며": 4910, "％": 4911, "그자": 4912, "안토니": 4913, "##상승": 4914, "노정": 4915, "♥": 4916, "조선어": 4917, "적혀": 4918, "총대": 4919, "사은": 4920, "십이": 4921, "##물": 4922, "덩": 4923, "##신문": 4924, "비하인드": 4925, "##휘": 4926, "증진": 4927, "납니다": 4928, "113": 4929, "화합물": 4930, "아쉬": 4931, "현황": 4932, "않": 4933, "후일": 4934, "sel": 4935, "가금": 4936, "##저지": 4937, "시커": 4938, "속셈": 4939, "가슴": 4940, "##am": 4941, "순수": 4942, "제천": 4943, "영종": 4944, "eds": 4945, "올리브": 4946, "이글스": 4947, "##워하": 4948, "아세안": 4949, "클로즈": 4950, "##르트르": 4951, "출입구": 4952, "거스르": 4953, "미역국": 4954, "낱낱": 4955, "##질러": 4956, "속죄": 4957, "부상": 4958, "171": 4959, "##춧가루": 4960, "고지": 4961, "마카": 4962, "##이스터": 4963, "줄여": 4964, "끼우": 4965, "컨": 4966, "##구니": 4967, "스파크": 4968, "드립": 4969, "버드": 4970, "##ally": 4971, "입원": 4972, "둡": 4973, "누워서": 4974, "치중": 4975, "거북선": 4976, "의인": 4977, "괴리": 4978, "교양": 4979, "동반": 4980, "자산관리": 4981, "흘리": 4982, "페어": 4983, "보장": 4984, "시사회": 4985, "서버": 4986, "방제": 4987, "상당": 4988, "피로": 4989, "잠재력": 4990, "##디아": 4991, "문경": 4992, "일심": 4993, "##orts": 4994, "코칭": 4995, "관동": 4996, "다쳐": 4997, "여주": 4998, "코끼리": 4999, "천수": 5000, "War": 5001, "들어와서": 5002, "CB": 5003, "패션": 5004, "다수당": 5005, "국무총리": 5006, "##천연": 5007, "나스": 5008, "##탔": 5009, "말문": 5010, "왓슨": 5011, "마카롱": 5012, "인준": 5013, "##겠다": 5014, "정훈": 5015, "걸터앉": 5016, "##란다": 5017, "근심": 5018, "전동차": 5019, "매장": 5020, "나옴": 5021, "세상": 5022, "經": 5023, "규범": 5024, "포괄": 5025, "기성": 5026, "가져오": 5027, "##임": 5028, "아파하": 5029, "오락": 5030, "러시": 5031, "5000": 5032, "일탈": 5033, "창": 5034, "##볼": 5035, "실화": 5036, "투표": 5037, "개화": 5038, "모스크": 5039, "밧": 5040, "코카": 5041, "##대장": 5042, "여실히": 5043, "##시아": 5044, "##준다": 5045, "시구": 5046, "노라": 5047, "프로그래": 5048, "힐끗": 5049, "실무자": 5050, "對": 5051, "안타까워": 5052, "상술": 5053, "y": 5054, "명칭": 5055, "보유자": 5056, "붕대": 5057, "Ch": 5058, "정확": 5059, "미트": 5060, "한계": 5061, "##패스": 5062, "##쳐서": 5063, "놓칠": 5064, "##박": 5065, "rep": 5066, "한편": 5067, "사은품": 5068, "느린": 5069, "comp": 5070, "궁": 5071, "##드레": 5072, "47": 5073, "자격증": 5074, "유럽": 5075, "뽑아": 5076, "憲": 5077, "숫자": 5078, "고든": 5079, "파마": 5080, "직종": 5081, "타사": 5082, "POP": 5083, "지혜": 5084, "부사": 5085, "떠오를": 5086, "개업": 5087, "수렴": 5088, "십일": 5089, "결정지": 5090, "자란다": 5091, "로보": 5092, "##eph": 5093, "황우": 5094, "통신업": 5095, "##만장": 5096, "도도": 5097, "모르": 5098, "유관": 5099, "방송법": 5100, "상계": 5101, "온다": 5102, "부부": 5103, "샹": 5104, "삼국유사": 5105, "탕진": 5106, "저출산": 5107, "평야": 5108, "캐피탈": 5109, "최일": 5110, "실현": 5111, "몸통": 5112, "者": 5113, "159": 5114, "##벤처": 5115, "올바른": 5116, "전권": 5117, "학": 5118, "지사장": 5119, "박물": 5120, "실존": 5121, "숙원": 5122, "잉태": 5123, "니아": 5124, "살펴볼": 5125, "유방": 5126, "나위": 5127, "소비에트": 5128, "##th": 5129, "백두산": 5130, "탁상": 5131, "각광": 5132, "띄우": 5133, "청자": 5134, "멘탈": 5135, "시애": 5136, "근본": 5137, "떠올리": 5138, "##ox": 5139, "해준": 5140, "대우": 5141, "##교동": 5142, "나카": 5143, "수산": 5144, "포르": 5145, "##가짐": 5146, "##oduc": 5147, "싫어": 5148, "WBC": 5149, "보임": 5150, "인기": 5151, "안기": 5152, "무적": 5153, "##시스": 5154, "##수원": 5155, "자라": 5156, "현진": 5157, "##ms": 5158, "고학": 5159, "복제": 5160, "##전력": 5161, "비린내": 5162, "##벌이": 5163, "사례": 5164, "끙끙": 5165, "케미": 5166, "외지": 5167, "꼭두": 5168, "네이트": 5169, "##볶": 5170, "도로는": 5171, "##대포": 5172, "##고시": 5173, "본다면": 5174, "##잭": 5175, "명기": 5176, "엘시티": 5177, "모아": 5178, "외파": 5179, "Rev": 5180, "산후": 5181, "김주": 5182, "以": 5183, "지칭": 5184, "귀환": 5185, "오른쪽": 5186, "피란": 5187, "전압": 5188, "소년": 5189, "그름": 5190, "문병": 5191, "이길": 5192, "다분": 5193, "함량": 5194, "광주": 5195, "뒤따": 5196, "화기애애": 5197, "친족": 5198, "모의": 5199, "##자스": 5200, "##일관": 5201, "다스": 5202, "##토피아": 5203, "사나운": 5204, "신창": 5205, "통해": 5206, "귀찮": 5207, "##승차": 5208, "각성": 5209, "##통행": 5210, "돌진": 5211, "지원": 5212, "으며": 5213, "메뉴": 5214, "진심": 5215, "루피": 5216, "양식": 5217, "들꽃": 5218, "말렸": 5219, "동물원": 5220, "무서웠": 5221, "##끼리": 5222, "##드리": 5223, "휩싸여": 5224, "친하": 5225, "##네스": 5226, "편집장": 5227, "강력히": 5228, "128": 5229, "뼈아": 5230, "Die": 5231, "피케": 5232, "교통사고": 5233, "##ild": 5234, "동메달": 5235, "반하": 5236, "누설": 5237, "세워진": 5238, "##뭇": 5239, "요동": 5240, "##넹": 5241, "It": 5242, "애호": 5243, "중고차": 5244, "##기록": 5245, "ST": 5246, "권력": 5247, "##승": 5248, "다오": 5249, "상보": 5250, "앞길": 5251, "tvN": 5252, "AG": 5253, "이가": 5254, "cm": 5255, "##세대": 5256, "##핑": 5257, "매개체": 5258, "마라": 5259, "엔지니어링": 5260, "바깥": 5261, "건가요": 5262, "중증": 5263, "보험자": 5264, "구세주": 5265, "멸치": 5266, "앙드레": 5267, "우연히": 5268, "초중": 5269, "현대차": 5270, "프로젝트": 5271, "조선": 5272, "괴테": 5273, "상륙": 5274, "토탈": 5275, "MA": 5276, "견본": 5277, "왼편": 5278, "끝장": 5279, "외교통상부": 5280, "베를": 5281, "대한축구협회": 5282, "술자리": 5283, "꿀맛": 5284, "주주": 5285, "곡물": 5286, "##레일": 5287, "##ak": 5288, "눈치채": 5289, "밤늦": 5290, "베라": 5291, "백운": 5292, "제작": 5293, "##익스피어": 5294, "흥청": 5295, "물갈이": 5296, "aT": 5297, "통신": 5298, "짤": 5299, "##쓱": 5300, "##땜": 5301, "서초동": 5302, "##는지": 5303, "이름난": 5304, "밉": 5305, "모방": 5306, "##가": 5307, "선단": 5308, "무덤": 5309, "주물": 5310, "신생": 5311, "정용": 5312, "##티콘": 5313, "##눅": 5314, "불가결": 5315, "순탄": 5316, "소임": 5317, "면직": 5318, "무술": 5319, "교우": 5320, "헌신": 5321, "급하": 5322, "앨": 5323, "##★": 5324, "ph": 5325, "수도": 5326, "올스타": 5327, "mm": 5328, "##슬": 5329, "튜브": 5330, "시민운동": 5331, "리포터": 5332, "체계": 5333, "데려오": 5334, "징후": 5335, "군부": 5336, "공제": 5337, "산성": 5338, "하위": 5339, "사포": 5340, "살려야": 5341, "개탄": 5342, "전체": 5343, "피살": 5344, "조선조": 5345, "해저": 5346, "훔쳤": 5347, "고속버스": 5348, "sp": 5349, "충무": 5350, "107": 5351, "기업가": 5352, "깃발": 5353, "군정": 5354, "##스터": 5355, "토하": 5356, "가공": 5357, "밀접": 5358, "짐짓": 5359, "마라톤": 5360, "##oup": 5361, "엄선": 5362, "CE": 5363, "텔레콤": 5364, "팍팍": 5365, "결재": 5366, "##어진다": 5367, "휘청": 5368, "##ien": 5369, "학위": 5370, "시킴": 5371, "재추진": 5372, "접전": 5373, "아반떼": 5374, "컨소시엄": 5375, "하루빨리": 5376, "개똥": 5377, "고시": 5378, "연보": 5379, "똑": 5380, "의약": 5381, "##가정": 5382, "##혈관": 5383, "클라라": 5384, "외식업": 5385, "機": 5386, "현주": 5387, "설마": 5388, "相": 5389, "받들": 5390, "Free": 5391, "향수": 5392, "프레임": 5393, "매니아": 5394, "단백질": 5395, "준다": 5396, "동북": 5397, "캐서린": 5398, "배짱": 5399, "이루어진": 5400, "올라선": 5401, "사모님": 5402, "미상": 5403, "정봉주": 5404, "송두리": 5405, "누군지": 5406, "나타나": 5407, "##헛": 5408, "박종": 5409, "빨갱이": 5410, "##스카": 5411, "발각": 5412, "高": 5413, "공격": 5414, "기울이": 5415, "－": 5416, "전환사채": 5417, "실컷": 5418, "system": 5419, "##러미": 5420, "소드": 5421, "##샐": 5422, "수주": 5423, "한정판": 5424, "에겐": 5425, "월급": 5426, "2800": 5427, "2008": 5428, "발길": 5429, "날카롭": 5430, "수술실": 5431, "어구": 5432, "노여움": 5433, "인정받": 5434, "주목": 5435, "박지": 5436, "믿음": 5437, "신주": 5438, "스트라이": 5439, "리처드": 5440, "##댕이": 5441, "제전": 5442, "원망": 5443, "제외": 5444, "공방": 5445, "매개": 5446, "기다린": 5447, "무거웠": 5448, "무의미": 5449, "공사장": 5450, "상근": 5451, "##우마": 5452, "고문": 5453, "출입국": 5454, "헤어질": 5455, "네이션": 5456, "일파": 5457, "##죽": 5458, "##신기": 5459, "느": 5460, "혈": 5461, "백지": 5462, "편도": 5463, "전분": 5464, "수은": 5465, "증대": 5466, "헬리콥터": 5467, "##기운": 5468, "일찍이": 5469, "##델라": 5470, "대내외": 5471, "굳어진": 5472, "검": 5473, "똑바로": 5474, "특산물": 5475, "ㅁ": 5476, "풍습": 5477, "서클": 5478, "##④": 5479, "민주": 5480, "##if": 5481, "이용": 5482, "##서울": 5483, "벗어났": 5484, "##나간": 5485, "걸어": 5486, "비밀": 5487, "쓰여": 5488, "불가": 5489, "빛나": 5490, "##모": 5491, "명제": 5492, "포탈": 5493, "pe": 5494, "민간단체": 5495, "중기청": 5496, "환갑": 5497, "외동": 5498, "##깡": 5499, "##창": 5500, "하룻": 5501, "커": 5502, "일기": 5503, "TP": 5504, "맞먹": 5505, "맞춘": 5506, "유림": 5507, "유교": 5508, "on": 5509, "##현주": 5510, "##urch": 5511, "重": 5512, "두꺼비": 5513, "석방": 5514, "가급적": 5515, "나고": 5516, "총학생회": 5517, "판매원": 5518, "##촛": 5519, "##천": 5520, "정치권력": 5521, "뭐": 5522, "식음료": 5523, "##분석": 5524, "고쳐야": 5525, "보험업": 5526, "즐길": 5527, "眞": 5528, "하하": 5529, "불행": 5530, "요인": 5531, "몰릴": 5532, "G": 5533, "떠올": 5534, "이월": 5535, "클라우드": 5536, "끌리": 5537, "바로크": 5538, "빨": 5539, "딸아이": 5540, "기조연설": 5541, "기에": 5542, "확산": 5543, "회의록": 5544, "##아이": 5545, "너지": 5546, "##ㅁ": 5547, "손꼽히": 5548, "테마": 5549, "여느": 5550, "새빨": 5551, "오목": 5552, "되새기": 5553, "쌤": 5554, "번지": 5555, "촌장": 5556, "렇": 5557, "맞히": 5558, "##스레": 5559, "3500": 5560, "##기업": 5561, "##설": 5562, "당사국": 5563, "여고생": 5564, "##alysis": 5565, "Eng": 5566, "히로시마": 5567, "##화점": 5568, "pol": 5569, "김재철": 5570, "공동": 5571, "##MI": 5572, "노출": 5573, "해낸다": 5574, "##꾸러기": 5575, "삭": 5576, "자존": 5577, "원세훈": 5578, "출혈": 5579, "니체": 5580, "전가": 5581, "총성": 5582, "부주석": 5583, "상당수": 5584, "놓아": 5585, "입금": 5586, "비통": 5587, "블라": 5588, "대한제국": 5589, "매니지먼트": 5590, "들려오": 5591, "빚어진": 5592, "특파원": 5593, "가업": 5594, "컨셉트": 5595, "양심": 5596, "몸무게": 5597, "촉매": 5598, "Program": 5599, "쿄": 5600, "##팟": 5601, "쓰": 5602, "분실": 5603, "소림": 5604, "인사": 5605, "뤄": 5606, "요구르트": 5607, "출점": 5608, "봉인": 5609, "이루어져": 5610, "Time": 5611, "도쿄": 5612, "티아라": 5613, "관리원": 5614, "막장": 5615, "철저히": 5616, "쌍": 5617, "달성": 5618, "클러": 5619, "선보여": 5620, "안전교육": 5621, "항소": 5622, "총탄": 5623, "들깨": 5624, "Art": 5625, "투숙": 5626, "株": 5627, "어휴": 5628, "연구원": 5629, "제각": 5630, "를": 5631, "car": 5632, "집안": 5633, "구사": 5634, "기울일": 5635, "Res": 5636, "부검": 5637, "##행": 5638, "낙서": 5639, "새긴": 5640, "분기": 5641, "표지판": 5642, "##재": 5643, "##빽": 5644, "나와서": 5645, "선거법": 5646, "se": 5647, "그래요": 5648, "돌아다니": 5649, "켄": 5650, "패기": 5651, "얻": 5652, "생도": 5653, "기강": 5654, "어딘지": 5655, "초라": 5656, "탄력": 5657, "##로워": 5658, "com": 5659, "솔솔": 5660, "날아온": 5661, "목걸이": 5662, "완도": 5663, "리포트": 5664, "##로나": 5665, "줄이": 5666, "버그": 5667, "문안": 5668, "라야": 5669, "대표자": 5670, "했": 5671, "뜬금": 5672, "국정원": 5673, "지난해": 5674, "신구": 5675, "꼼꼼": 5676, "##치아": 5677, "자카르타": 5678, "들떠": 5679, "최시": 5680, "충북": 5681, "##프레": 5682, "업그레이드": 5683, "집어던": 5684, "490": 5685, "중독자": 5686, "중등": 5687, "윤리학": 5688, "어미": 5689, "증세": 5690, "속마음": 5691, "사용료": 5692, "《": 5693, "##갑니다": 5694, "제이": 5695, "##iam": 5696, "인공지능": 5697, "철": 5698, "포맷": 5699, "분권": 5700, "잠시": 5701, "사": 5702, "모로코": 5703, "테이블": 5704, "2010": 5705, "##부진": 5706, "##치미": 5707, "마셔야": 5708, "빛": 5709, "넷플릭스": 5710, "구치소": 5711, "탄성": 5712, "기획": 5713, "김효": 5714, "발광": 5715, "벨리": 5716, "4300": 5717, "##임금": 5718, "화신": 5719, "GDP": 5720, "##더니": 5721, "##현진": 5722, "정모": 5723, "음식점": 5724, "##연대": 5725, "##℃": 5726, "단면": 5727, "좁히": 5728, "털어놓": 5729, "다를": 5730, "##앞": 5731, "아닌가": 5732, "항생제": 5733, "##▲": 5734, "세용": 5735, "종북": 5736, "나무": 5737, "서예": 5738, "말초": 5739, "휩쓸려": 5740, "소매업": 5741, "수임": 5742, "안전": 5743, "##리즘": 5744, "겨자": 5745, "윤정": 5746, "##ournal": 5747, "민트": 5748, "##돈나": 5749, "백두대간": 5750, "엇갈린": 5751, "용감": 5752, "운동량": 5753, "꽁꽁": 5754, "만점": 5755, "만국": 5756, "##일비": 5757, "Cap": 5758, "감정": 5759, "으니": 5760, "호텔": 5761, "신정": 5762, "##들": 5763, "생활고": 5764, "타자": 5765, "수수께끼": 5766, "박범": 5767, "콕": 5768, "클래": 5769, "##폭력": 5770, "눈높이": 5771, "여러분": 5772, "단아": 5773, "친한": 5774, "옆집": 5775, "제일은행": 5776, "리커": 5777, "명나라": 5778, "떠나": 5779, "소매점": 5780, "분담금": 5781, "풀린": 5782, "장정": 5783, "소실": 5784, "빙하": 5785, "고장": 5786, "DMZ": 5787, "통상": 5788, "윤회": 5789, "##롬": 5790, "축출": 5791, "보잘것없": 5792, "여자": 5793, "채워": 5794, "제소": 5795, "PB": 5796, "##로스": 5797, "일깨우": 5798, "인플": 5799, "신라호텔": 5800, "동태": 5801, "젊은이": 5802, "인데": 5803, "슷": 5804, "다시금": 5805, "종속": 5806, "증가": 5807, "기입": 5808, "유태인": 5809, "되돌아오": 5810, "저성장": 5811, "Up": 5812, "모토": 5813, "진보": 5814, "화엄": 5815, "시미": 5816, "교량": 5817, "위급": 5818, "지방세": 5819, "모노": 5820, "재범": 5821, "김민": 5822, "소령": 5823, "야전": 5824, "기여": 5825, "##란트": 5826, "요술": 5827, "나타": 5828, "아귀": 5829, "思": 5830, "##샤브": 5831, "따위": 5832, "룻": 5833, "이례": 5834, "정해야": 5835, "환상": 5836, "단죄": 5837, "넬": 5838, "기술": 5839, "맛봤": 5840, "연설": 5841, "판정": 5842, "##riv": 5843, "동성애": 5844, "저렇": 5845, "후보": 5846, "##겨운": 5847, "##뻣": 5848, "##산부": 5849, "기자": 5850, "영정": 5851, "캐슬": 5852, "##네마": 5853, "300": 5854, "쩡": 5855, "거느린": 5856, "이끼": 5857, "노벨": 5858, "기념": 5859, "앓": 5860, "##녘": 5861, "뒹굴": 5862, "살": 5863, "돌아와서": 5864, "느껴야": 5865, "34": 5866, "장악": 5867, "JTBC": 5868, "박영수": 5869, "≫": 5870, "불어났": 5871, "소고기": 5872, "에프": 5873, "약서": 5874, "열무": 5875, "죽음": 5876, "爲": 5877, "하노이": 5878, "##룸": 5879, "저당": 5880, "동지": 5881, "알아채": 5882, "돌려받": 5883, "기회": 5884, "유감없이": 5885, "눈여겨보": 5886, "##셜": 5887, "개발자": 5888, "발바닥": 5889, "결승선": 5890, "강서구": 5891, "허덕": 5892, "사돈": 5893, "철저": 5894, "쳐야": 5895, "더욱이": 5896, "케인": 5897, "나아갔": 5898, "이기": 5899, "장상": 5900, "춰": 5901, "되살리": 5902, "운동장": 5903, "모를": 5904, "but": 5905, "저장": 5906, "##늉": 5907, "공관": 5908, "자생": 5909, "##rip": 5910, "##진로": 5911, "평범": 5912, "갖춰져": 5913, "정해": 5914, "무표정": 5915, "##럼프": 5916, "맷": 5917, "교과서": 5918, "##네임": 5919, "헤어졌": 5920, "사이드": 5921, "연출가": 5922, "전북": 5923, "마일": 5924, "코": 5925, "국면": 5926, "광구": 5927, "주치": 5928, "소폭": 5929, "려고": 5930, "ELS": 5931, "김종인": 5932, "##ear": 5933, "뒤로": 5934, "##악": 5935, "천박": 5936, "##럴드": 5937, "재보": 5938, "배경": 5939, "트립": 5940, "##귤": 5941, "공대": 5942, "##킥": 5943, "파급": 5944, "스며들": 5945, "빚어졌": 5946, "눈시울": 5947, "희생": 5948, "##천리": 5949, "책임자": 5950, "##르륵": 5951, "묵살": 5952, "뜬": 5953, "젯": 5954, "##마켓": 5955, "##냈": 5956, "122": 5957, "고를": 5958, "전략": 5959, "계좌": 5960, "##등": 5961, "잠잠": 5962, "Rel": 5963, "주유소": 5964, "열차": 5965, "파크": 5966, "행동": 5967, "현명": 5968, "손꼽": 5969, "##깍": 5970, "형광": 5971, "나왔": 5972, "천명": 5973, "부렸": 5974, "블럭": 5975, "더운": 5976, "응답자": 5977, "여행": 5978, "고쳐": 5979, "항아리": 5980, "가파르": 5981, "떡": 5982, "ag": 5983, "기대치": 5984, "##TA": 5985, "##air": 5986, "천신": 5987, "지하실": 5988, "경영학": 5989, "고위직": 5990, "ㆍ제": 5991, "두드러졌": 5992, "거칠": 5993, "애도": 5994, "FDA": 5995, "용량": 5996, "접할": 5997, "##씹": 5998, "초미세": 5999, "부총장": 6000, "블레이드": 6001, "유보": 6002, "야심": 6003, "자책": 6004, "말썽": 6005, "견과": 6006, "꾸며진": 6007, "맛집": 6008, "##개비": 6009, "협력체": 6010, "##낚": 6011, "##ok": 6012, "핸디": 6013, "아름다워": 6014, "심해질": 6015, "건축비": 6016, "격변": 6017, "나서": 6018, "##공화": 6019, "관상": 6020, "##두고": 6021, "##숙": 6022, "##ㅋ": 6023, "놓": 6024, "대검찰청": 6025, "인승": 6026, "지질": 6027, "벌어들인": 6028, "맹주": 6029, "뚱뚱": 6030, "임정": 6031, "상관": 6032, "##팡": 6033, "지나치": 6034, "화들짝": 6035, "패자": 6036, "##혹": 6037, "자전거": 6038, "노안": 6039, "##쨌": 6040, "둘째": 6041, "셀러": 6042, "만발": 6043, "청바지": 6044, "얘기": 6045, "프로세스": 6046, "UV": 6047, "뮌": 6048, "##돼지": 6049, "책방": 6050, "순하": 6051, "백석": 6052, "##정신": 6053, "훌륭": 6054, "리원": 6055, "옹": 6056, "추문": 6057, "박명": 6058, "장량": 6059, "프로테": 6060, "##무쌍": 6061, "주원": 6062, "정종": 6063, "커리어": 6064, "당권": 6065, "백기": 6066, "소추": 6067, "결정짓": 6068, "##랗": 6069, "호두": 6070, "팔뚝": 6071, "신작": 6072, "##ision": 6073, "난데없이": 6074, "토해": 6075, "솔선": 6076, "##ID": 6077, "##oto": 6078, "램": 6079, "##네": 6080, "해결책": 6081, "투성이": 6082, "최영": 6083, "##nal": 6084, "마약": 6085, "부통령": 6086, "덩어리": 6087, "감찰관": 6088, "정의": 6089, "安": 6090, "위정": 6091, "노령": 6092, "재판": 6093, "파업": 6094, "ㆍ지": 6095, "##방": 6096, "에콰도르": 6097, "의견": 6098, "##공산": 6099, "선원": 6100, "경상도": 6101, "이한": 6102, "살상": 6103, "우호": 6104, "소피아": 6105, "재난": 6106, "FM": 6107, "잠긴": 6108, "마태": 6109, "간파": 6110, "빗발": 6111, "보궐": 6112, "느라": 6113, "분업": 6114, "##며": 6115, "마감": 6116, "배급사": 6117, "##중기": 6118, "티비": 6119, "최진": 6120, "범위": 6121, "사보": 6122, "그르": 6123, "노랗": 6124, "Rob": 6125, "탈락": 6126, "##ist": 6127, "박용": 6128, "단절": 6129, "만듭니다": 6130, "알아보": 6131, "무더기": 6132, "현인": 6133, "국채": 6134, "기울였": 6135, "증감": 6136, "넉넉": 6137, "왕세자": 6138, "é": 6139, "페널티": 6140, "싸우": 6141, "##스민": 6142, "박상": 6143, "내려지": 6144, "다문": 6145, "두꺼": 6146, "트랙": 6147, "싸웠": 6148, "찾아다니": 6149, "번영": 6150, "민": 6151, "##OL": 6152, "마우스": 6153, "백남": 6154, "개구리": 6155, "##생긴": 6156, "수만": 6157, "##녕": 6158, "미제": 6159, "##ins": 6160, "달한": 6161, "##벌리": 6162, "해석학": 6163, "손자": 6164, "부의": 6165, "자본금": 6166, "위엄": 6167, "위트": 6168, "환대": 6169, "마진": 6170, "##얼": 6171, "##부들": 6172, "村": 6173, "됐으니": 6174, "티아": 6175, "수": 6176, "기라": 6177, "피시": 6178, "명단": 6179, "문제점": 6180, "##솟": 6181, "강점기": 6182, "집어들": 6183, "지출": 6184, "고서": 6185, "현대캐피탈": 6186, "사심": 6187, "호전": 6188, "##카와": 6189, "망언": 6190, "피하": 6191, "##총액": 6192, "금품": 6193, "베푸": 6194, "만리": 6195, "식욕": 6196, "모국어": 6197, "##크라": 6198, "방문자": 6199, "##sh": 6200, "락": 6201, "산정": 6202, "서해": 6203, "추적": 6204, "작자": 6205, "사오": 6206, "케냐": 6207, "시절": 6208, "예절": 6209, "해부": 6210, "심리학": 6211, "맥아더": 6212, "Pro": 6213, "유엔": 6214, "갚": 6215, "인디": 6216, "4200": 6217, "공업": 6218, "우선주": 6219, "##칩": 6220, "세심": 6221, "가리켰": 6222, "얼큰": 6223, "그리스도교": 6224, "셀프": 6225, "##브르": 6226, "젊음": 6227, "했을까": 6228, "무수히": 6229, "##림픽": 6230, "호스": 6231, "##RI": 6232, "##들여": 6233, "부지런": 6234, "망할": 6235, "장자": 6236, "선취": 6237, "시효": 6238, "갈비": 6239, "SP": 6240, "그럽": 6241, "세": 6242, "췌": 6243, "바르": 6244, "공전": 6245, "저수": 6246, "막상": 6247, "워런": 6248, "##동안": 6249, "오랫": 6250, "동석": 6251, "더듬": 6252, "내밀": 6253, "르노삼성": 6254, "커졌": 6255, "##메이션": 6256, "##옥": 6257, "셀피": 6258, "이즈": 6259, "횡령": 6260, "##틴": 6261, "다다랐": 6262, "재테크": 6263, "통지서": 6264, "##전등": 6265, "도망": 6266, "##부산": 6267, "당규": 6268, "묘지": 6269, "용의": 6270, "달라이": 6271, "막중": 6272, "구자": 6273, "황교": 6274, "##토르": 6275, "마이너": 6276, "치밀": 6277, "사사": 6278, "##박사": 6279, "뼈아픈": 6280, "##옳": 6281, "##수정": 6282, "겉모습": 6283, "바이오": 6284, "심상정": 6285, "정차": 6286, "다가갈": 6287, "##녀": 6288, "MV": 6289, "메소": 6290, "註": 6291, "제압": 6292, "조장": 6293, "學": 6294, "##릭": 6295, "관하": 6296, "샌더스": 6297, "살며시": 6298, "연동": 6299, "##폰": 6300, "문제": 6301, "틀림없": 6302, "버금": 6303, "부러": 6304, "복직": 6305, "자발": 6306, "##co": 6307, "난장": 6308, "기술자": 6309, "한다면": 6310, "대상지": 6311, "단계": 6312, "##싯": 6313, "날리": 6314, "문하": 6315, "그룹": 6316, "임시": 6317, "이겨낼": 6318, "단말기": 6319, "공백": 6320, "스트레": 6321, "단풍": 6322, "이렇게": 6323, "보내왔": 6324, "시각": 6325, "##커피": 6326, "최원": 6327, "이반": 6328, "흔들리": 6329, "방방": 6330, "1936": 6331, "부작용": 6332, "##거주": 6333, "버금가": 6334, "면접": 6335, "##eau": 6336, "##내린": 6337, "유료": 6338, "##레": 6339, "돼야": 6340, "유리창": 6341, "운치": 6342, "##께끼": 6343, "유엔군": 6344, "풍겼": 6345, "팀장": 6346, "석면": 6347, "폴크스": 6348, "백신": 6349, "##예술": 6350, "웹": 6351, "##aily": 6352, "정회": 6353, "RF": 6354, "죽였": 6355, "##립니다": 6356, "볼륨": 6357, "인재": 6358, "알콜": 6359, "명실상부": 6360, "떠받": 6361, "환산": 6362, "근린공원": 6363, "배럴": 6364, "물어뜯": 6365, "보스": 6366, "OB": 6367, "##드": 6368, "자칫": 6369, "화랑": 6370, "티볼": 6371, "주어진다": 6372, "문정": 6373, "##ole": 6374, "주간": 6375, "##팡이": 6376, "자제": 6377, "##짜": 6378, "##따리": 6379, "종업": 6380, "서상": 6381, "청와대": 6382, "수채": 6383, "멈": 6384, "146": 6385, "87": 6386, "돌아갈": 6387, "##몹": 6388, "든": 6389, "쓰리": 6390, "살펴보": 6391, "##Y": 6392, "패스트푸드": 6393, "농협": 6394, "합참": 6395, "법원장": 6396, "견딜": 6397, "2020": 6398, "가로채": 6399, "NY": 6400, "특별시": 6401, "리모": 6402, "후유증": 6403, "예사": 6404, "복선": 6405, "소수": 6406, "불참": 6407, "생겨난다": 6408, "알아냈": 6409, "부러움": 6410, "올레": 6411, "끌어당기": 6412, "독립": 6413, "테러리즘": 6414, "후견": 6415, "잦아들": 6416, "파울": 6417, "미션": 6418, "닉스": 6419, "##AS": 6420, "##↑": 6421, "운운": 6422, "차분히": 6423, "조합원": 6424, "도쿠": 6425, "어두운": 6426, "##김치": 6427, "공통점": 6428, "##ver": 6429, "뮤지션": 6430, "국무부": 6431, "박세": 6432, "독성": 6433, "우여곡절": 6434, "보여야": 6435, "줘도": 6436, "상견": 6437, "이루": 6438, "##나르": 6439, "주중": 6440, "상세": 6441, "임관": 6442, "휴대폰": 6443, "저층": 6444, "순조": 6445, "常": 6446, "일종": 6447, "108": 6448, "##으리": 6449, "파기": 6450, "몽고": 6451, "식료품": 6452, "양평군": 6453, "행정부": 6454, "샷": 6455, "##워진": 6456, "자아": 6457, "304": 6458, "문학관": 6459, "회자": 6460, "놓였": 6461, "련": 6462, "##각각": 6463, "Pet": 6464, "세습": 6465, "터트리": 6466, "진로": 6467, "##저트": 6468, "금상": 6469, "시력": 6470, "항공기": 6471, "##스틱": 6472, "끈질긴": 6473, "온데": 6474, "해온": 6475, "##ality": 6476, "중간": 6477, "치마": 6478, "유승민": 6479, "##work": 6480, "##AE": 6481, "주먹밥": 6482, "SD": 6483, "권위": 6484, "검진": 6485, "성립": 6486, "카메라": 6487, "Ver": 6488, "렌탈": 6489, "예배당": 6490, "##티나": 6491, "##륜": 6492, "케이블": 6493, "ㆍ가": 6494, "경종": 6495, "성조": 6496, "마술사": 6497, "결혼": 6498, "정승": 6499, "성과급": 6500, "##난히": 6501, "합쳐서": 6502, "##메라": 6503, "성자": 6504, "폭넓": 6505, "파나": 6506, "어획량": 6507, "교통비": 6508, "아인": 6509, "Y": 6510, "##헥": 6511, "망상": 6512, "우러": 6513, "경지": 6514, "향기": 6515, "이륙": 6516, "행해": 6517, "범벅": 6518, "사회학": 6519, "아구": 6520, "##체육": 6521, "어치": 6522, "말미암": 6523, "하느님": 6524, "타살": 6525, "National": 6526, "코피": 6527, "##법인": 6528, "쳐도": 6529, "참된": 6530, "기념식": 6531, "각시": 6532, "부쩍": 6533, "그럼에도": 6534, "수면": 6535, "##륵": 6536, "미룰": 6537, "짜여": 6538, "체조": 6539, "주황": 6540, "소개서": 6541, "귀걸이": 6542, "PA": 6543, "철기": 6544, "불안해하": 6545, "돌보": 6546, "꼬마": 6547, "아이패드": 6548, "루": 6549, "하얀색": 6550, "캄": 6551, "##말리아": 6552, "베네": 6553, "이정미": 6554, "인스턴트": 6555, "델": 6556, "##⠀": 6557, "쇄신": 6558, "무명": 6559, "##운전": 6560, "풀무원": 6561, "조교": 6562, "##ies": 6563, "어제": 6564, "고영": 6565, "##륨": 6566, "암벽": 6567, "경고": 6568, "해인": 6569, "SOC": 6570, "뚫린": 6571, "거대": 6572, "국영": 6573, "쐐기": 6574, "후속": 6575, "##aum": 6576, "##하": 6577, "##순위": 6578, "##어": 6579, "22": 6580, "산림청": 6581, "총감독": 6582, "전공": 6583, "근친": 6584, "창녕": 6585, "##니": 6586, "뱃": 6587, "가입자": 6588, "펴냈": 6589, "프레이": 6590, "장소": 6591, "견제": 6592, "후식": 6593, "##메이": 6594, "내비": 6595, "고초": 6596, "LIG": 6597, "사립대": 6598, "소상": 6599, "아슬": 6600, "##라이나": 6601, "시금": 6602, "이따금": 6603, "대덕": 6604, "마더": 6605, "사태": 6606, "고무줄": 6607, "탄식": 6608, "무너졌": 6609, "NG": 6610, "축전": 6611, "데려온": 6612, "비결": 6613, "간곡": 6614, "한기": 6615, "가려져": 6616, "오비": 6617, "허용": 6618, "가의": 6619, "우동": 6620, "비료": 6621, "모터쇼": 6622, "까마득": 6623, "도우미": 6624, "유두": 6625, "##콥터": 6626, "살필": 6627, "모씨": 6628, "11": 6629, "ㄱ": 6630, "대유": 6631, "木": 6632, "##묶": 6633, "태영": 6634, "아날": 6635, "봉중근": 6636, "히틀러": 6637, "가렸": 6638, "알라": 6639, "중랑": 6640, "박은": 6641, "액화": 6642, "크리스틴": 6643, "슬라이드": 6644, "##rist": 6645, "##올라": 6646, "꼽히": 6647, "194": 6648, "전래": 6649, "로서": 6650, "곡": 6651, "##종일": 6652, "키운": 6653, "스코틀랜드": 6654, "blog": 6655, "##암동": 6656, "상수원": 6657, "까치": 6658, "내려서": 6659, "용두": 6660, "##B": 6661, "##서": 6662, "슬러": 6663, "절약": 6664, "지지": 6665, "발굴": 6666, "연합회": 6667, "작문": 6668, "변신": 6669, "이분": 6670, "높인": 6671, "필립스": 6672, "Research": 6673, "열흘": 6674, "드러누": 6675, "붙여진": 6676, "해역": 6677, "터보": 6678, "당직": 6679, "GO": 6680, "연희": 6681, "골": 6682, "보단": 6683, "초년": 6684, "불이행": 6685, "기꺼이": 6686, "응원단": 6687, "즈": 6688, "창피": 6689, "계주": 6690, "홉": 6691, "##금속": 6692, "98": 6693, "극한": 6694, "찾아갈": 6695, "사도": 6696, "당과": 6697, "500": 6698, "최다": 6699, "서서": 6700, "커뮤니티": 6701, "##리스": 6702, "##루엔자": 6703, "삼양": 6704, "확고": 6705, "저승": 6706, "저게": 6707, "##닭": 6708, "밖에": 6709, "출세": 6710, "라구": 6711, "갈": 6712, "夫": 6713, "수순": 6714, "개소": 6715, "##은희": 6716, "위자료": 6717, "함양": 6718, "무허가": 6719, "체온": 6720, "귀속": 6721, "진경": 6722, "청담": 6723, "만이": 6724, "특기": 6725, "시승": 6726, "##옷": 6727, "푸르지오": 6728, "제주항공": 6729, "역량": 6730, "##에도": 6731, "비록": 6732, "전액": 6733, "410": 6734, "숨길": 6735, "代": 6736, "동국제강": 6737, "지내": 6738, "음식물": 6739, "##쿠니": 6740, "쁘": 6741, "조언": 6742, "태반": 6743, "흔": 6744, "고급": 6745, "##두리": 6746, "거처": 6747, "EL": 6748, "##나가": 6749, "명량": 6750, "펠": 6751, "툰": 6752, "절묘": 6753, "견학": 6754, "망설임": 6755, "귀추": 6756, "Ad": 6757, "똑똑히": 6758, "##닐라": 6759, "탈레반": 6760, "요양": 6761, "불우": 6762, "미성": 6763, "몰이": 6764, "조절": 6765, "##구리": 6766, "거취": 6767, "던진다": 6768, "가르쳤": 6769, "스완": 6770, "혼례": 6771, "할부": 6772, "p": 6773, "253": 6774, "누비": 6775, "은빛": 6776, "##사이": 6777, "매카": 6778, "권영진": 6779, "진나라": 6780, "##멸": 6781, "정신력": 6782, "운용": 6783, "선보인": 6784, "쌍방": 6785, "슈": 6786, "##쌀": 6787, "치과": 6788, "천태": 6789, "감가": 6790, "어우러지": 6791, "뚜": 6792, "을": 6793, "필하모닉": 6794, "김영환": 6795, "##ody": 6796, "대첩": 6797, "했으면": 6798, "u": 6799, "올라간": 6800, "전투력": 6801, "막스": 6802, "다이얼": 6803, "보루": 6804, "무당": 6805, "스트리": 6806, "왕비": 6807, "프로그래머": 6808, "판매량": 6809, "지서": 6810, "수표": 6811, "감귤": 6812, "배고파": 6813, "N": 6814, "상급": 6815, "꺼려": 6816, "감정평가": 6817, "선출": 6818, "##맙": 6819, "흐느끼": 6820, "재개": 6821, "##매": 6822, "방심": 6823, "젠장": 6824, "렵": 6825, "김일성": 6826, "몸소": 6827, "##잘": 6828, "보양": 6829, "지극": 6830, "세모": 6831, "압축": 6832, "캐피털": 6833, "해운대": 6834, "피칭": 6835, "##이치": 6836, "샌들": 6837, "##나연": 6838, "그런대로": 6839, "퉁명": 6840, "만루": 6841, "상층": 6842, "cons": 6843, "나니": 6844, "다치": 6845, "모기업": 6846, "석굴": 6847, "남북": 6848, "산악인": 6849, "##기지": 6850, "분원": 6851, "창업주": 6852, "옷가지": 6853, "비바람": 6854, "두유": 6855, "돌려": 6856, "##쿵": 6857, "이슈": 6858, "정각": 6859, "모습": 6860, "##질랜드": 6861, "누출": 6862, "누명": 6863, "##iation": 6864, "##파크": 6865, "우승컵": 6866, "눈매": 6867, "윤곽": 6868, "it": 6869, "오색": 6870, "명명": 6871, "폭락": 6872, "이루어지": 6873, "##알": 6874, "야구팬": 6875, "이봐": 6876, "멈칫": 6877, "전차": 6878, "접하": 6879, "고소득": 6880, "이종": 6881, "ㅋ": 6882, "에이치": 6883, "라운지": 6884, "원만": 6885, "깔려": 6886, "편의점": 6887, "##어날": 6888, "검색어": 6889, "나타날": 6890, "2017": 6891, "부딪쳐": 6892, "9500": 6893, "##몄": 6894, "승산": 6895, "##니엄": 6896, "##대표제": 6897, "작별": 6898, "뚫": 6899, "문무": 6900, "안마": 6901, "미납": 6902, "뭔가": 6903, "재능": 6904, "##광석": 6905, "De": 6906, "결투": 6907, "##희정": 6908, "쿠리": 6909, "##프레스": 6910, "전이": 6911, "해칠": 6912, "백미": 6913, "솔라": 6914, "바리스타": 6915, "장애인": 6916, "스테인": 6917, "누리꾼": 6918, "오바": 6919, "182": 6920, "##뾰": 6921, "살피": 6922, "가야금": 6923, "##ail": 6924, "##간": 6925, "공약": 6926, "개통": 6927, "나타난다": 6928, "기지국": 6929, "퀘스트": 6930, "몰라서": 6931, "배아": 6932, "보일": 6933, "공교육": 6934, "직제": 6935, "레퍼토리": 6936, "##큼": 6937, "##서스": 6938, "부쳐": 6939, "##＝": 6940, "폐허": 6941, "##듀": 6942, "애드": 6943, "물량": 6944, "건넌": 6945, "##려야": 6946, "철강업": 6947, "##NA": 6948, "어떻": 6949, "유경": 6950, "쳤": 6951, "호우": 6952, "##ale": 6953, "아름다운": 6954, "지산": 6955, "무거운": 6956, "문단": 6957, "외도": 6958, "로열티": 6959, "상처": 6960, "##CC": 6961, "##ays": 6962, "야말로": 6963, "학장": 6964, "과다": 6965, "가느다란": 6966, "맙": 6967, "플라스": 6968, "탄수화물": 6969, "와요": 6970, "김효주": 6971, "양희": 6972, "이익": 6973, "테이크": 6974, "진실": 6975, "교전": 6976, "케이": 6977, "풍속": 6978, "청하": 6979, "서평": 6980, "젓": 6981, "土": 6982, "##즈": 6983, "매경": 6984, "하이브리드": 6985, "라": 6986, "기대": 6987, "라이벌": 6988, "화전": 6989, "괄": 6990, "##노당": 6991, "협박": 6992, "##밍": 6993, "##릴라": 6994, "빈자리": 6995, "징벌": 6996, "역대": 6997, "법률가": 6998, "라이": 6999, "한국전력": 7000, "##솜": 7001, "고된": 7002, "대경": 7003, "약간": 7004, "소리쳤": 7005, "惡": 7006, "맞대": 7007, "언급": 7008, "수선": 7009, "영조": 7010, "가히": 7011, "앞선다": 7012, "누나": 7013, "##퍼레이션": 7014, "통통": 7015, "오성": 7016, "##구조": 7017, "신다": 7018, "##ward": 7019, "때마침": 7020, "연연": 7021, "##스테이": 7022, "라벤": 7023, "해금": 7024, "강서": 7025, "∼": 7026, "낙지": 7027, "한국": 7028, "저속": 7029, "정보원": 7030, "움직여야": 7031, "건축": 7032, "말끝": 7033, "목욕탕": 7034, "좌초": 7035, "레오나": 7036, "㎞": 7037, "브릿지": 7038, "호남": 7039, "##않": 7040, "볼트": 7041, "##계리": 7042, "바디": 7043, "투척": 7044, "갈증": 7045, "조우": 7046, "택지": 7047, "칸막이": 7048, "##그": 7049, "미덕": 7050, "백인": 7051, "레베": 7052, "##팰": 7053, "전집": 7054, "이대": 7055, "##조심": 7056, "살아난": 7057, "블라우스": 7058, "개표": 7059, "아픈": 7060, "파시즘": 7061, "투수": 7062, "뒤따랐": 7063, "올레길": 7064, "수용": 7065, "PT": 7066, "일어서": 7067, "왔으니": 7068, "구독": 7069, "갑작스레": 7070, "개천": 7071, "##친다": 7072, "애교": 7073, "정성껏": 7074, "특목고": 7075, "적막": 7076, "##67": 7077, "MT": 7078, "1993": 7079, "연예인": 7080, "##매기": 7081, "로망": 7082, "박사": 7083, "쌍방향": 7084, "만기": 7085, "담당관": 7086, "북아": 7087, "고난": 7088, "1896": 7089, "체벌": 7090, "곧": 7091, "진출": 7092, "꾹꾹": 7093, "낙찰": 7094, "달랬": 7095, "염": 7096, "오갈": 7097, "##숫": 7098, "알아볼": 7099, "채용": 7100, "편익": 7101, "Car": 7102, "제너럴": 7103, "대리운전": 7104, "맡겼": 7105, "지기": 7106, "관계자": 7107, "미온": 7108, "핸드": 7109, "중수": 7110, "구매력": 7111, "미관": 7112, "버틸": 7113, "롤러": 7114, "##맺": 7115, "##굉": 7116, "구체": 7117, "나온": 7118, "어리석": 7119, "어린애": 7120, "유유": 7121, "법사": 7122, "여지없이": 7123, "낙오": 7124, "바퀴": 7125, "##63": 7126, "감점": 7127, "##테크": 7128, "쌀": 7129, "그리": 7130, "뇌물": 7131, "말살": 7132, "연꽃": 7133, "##gan": 7134, "##인": 7135, "##다수": 7136, "접어든": 7137, "미켈": 7138, "삶": 7139, "재선": 7140, "##74": 7141, "매미": 7142, "내세우": 7143, "최승": 7144, "수성구": 7145, "동반자": 7146, "레스": 7147, "묘사": 7148, "불구": 7149, "##릅니다": 7150, "뽕": 7151, "ch": 7152, "조성": 7153, "온난화": 7154, "윤아": 7155, "成": 7156, "왕족": 7157, "9000": 7158, "154": 7159, "아테네": 7160, "로": 7161, "##렴": 7162, "기질": 7163, "동두천시": 7164, "스타트": 7165, "롯": 7166, "빽": 7167, "##핵화": 7168, "유니버설": 7169, "고안": 7170, "뗄": 7171, "산행": 7172, "##켓": 7173, "명망": 7174, "아수라": 7175, "본회의": 7176, "가": 7177, "쇠약": 7178, "서문": 7179, "과연": 7180, "힘없이": 7181, "화가": 7182, "망설였": 7183, "ㆍ현": 7184, "맞은": 7185, "토종": 7186, "##인지": 7187, "용모": 7188, "신분증": 7189, "둑": 7190, "성": 7191, "레깅스": 7192, "자유": 7193, "광동": 7194, "온갖": 7195, "한신": 7196, "3300": 7197, "일가": 7198, "나약": 7199, "##넓": 7200, "##킨스": 7201, "공소시효": 7202, "가라앉히": 7203, "화석": 7204, "골절": 7205, "빼": 7206, "버섯": 7207, "퍼거슨": 7208, "전교": 7209, "닥터": 7210, "동감": 7211, "불감증": 7212, "##action": 7213, "이광수": 7214, "상궁": 7215, "##ington": 7216, "##게요": 7217, "##띄": 7218, "브룩": 7219, "추출": 7220, "충정": 7221, "지와": 7222, "니까": 7223, "다문화": 7224, "La": 7225, "##ience": 7226, "홈": 7227, "미간": 7228, "진성": 7229, "소장품": 7230, "##ㆍ": 7231, "경": 7232, "나직": 7233, "놀란": 7234, "캄보디아": 7235, "##곶": 7236, "삿포로": 7237, "##길": 7238, "음모": 7239, "딱": 7240, "문화유산": 7241, "얼어붙": 7242, "동의서": 7243, "흘러": 7244, "알려준다": 7245, "매립지": 7246, "자초": 7247, "성분": 7248, "사회봉사": 7249, "설날": 7250, "맨해튼": 7251, "225": 7252, "국빈": 7253, "계열사": 7254, "톨": 7255, "##굴": 7256, "a": 7257, "송영": 7258, "기염": 7259, "보톡스": 7260, "가진": 7261, "비겁": 7262, "##튿": 7263, "김광석": 7264, "그래도": 7265, "경질": 7266, "일보": 7267, "통나무": 7268, "어울": 7269, "게임기": 7270, "느껴진다": 7271, "치킨": 7272, "내보": 7273, "##리사": 7274, "뇌졸중": 7275, "지나쳤": 7276, "##지": 7277, "오키": 7278, "크리에이티브": 7279, "##독": 7280, "구설": 7281, "결핍": 7282, "빠듯": 7283, "냅": 7284, "Korean": 7285, "##그레이드": 7286, "상암동": 7287, "날릴": 7288, "수업": 7289, "Sh": 7290, "공연히": 7291, "가축": 7292, "방아": 7293, "뵙": 7294, "자동차": 7295, "다는": 7296, "##ere": 7297, "비키": 7298, "애칭": 7299, "##술": 7300, "라비": 7301, "정찰": 7302, "시합": 7303, "블리": 7304, "스타트업": 7305, "격언": 7306, "치안": 7307, "정문": 7308, "식스": 7309, "한숨": 7310, "판촉": 7311, "##임새": 7312, "##박스": 7313, "제거": 7314, "송아지": 7315, "피어": 7316, "지능": 7317, "마신다": 7318, "교란": 7319, "강렬": 7320, "설립": 7321, "##일": 7322, "연고지": 7323, "##민국": 7324, "따분": 7325, "불현듯": 7326, "김재": 7327, "앞당겨": 7328, "다시": 7329, "크레": 7330, "철책": 7331, "아웃렛": 7332, "##배상": 7333, "유라시아": 7334, "최현": 7335, "토록": 7336, "지난번": 7337, "웃겨": 7338, "##섞": 7339, "이벤트": 7340, "##호흡": 7341, "##을거리": 7342, "마지": 7343, "장차": 7344, "퇴거": 7345, "성당": 7346, "경상남도": 7347, "##스크": 7348, "작정": 7349, "전략가": 7350, "스필": 7351, "사연": 7352, "다룰": 7353, "식비": 7354, "쿠스": 7355, "연해": 7356, "영양사": 7357, "뷔페": 7358, "GPS": 7359, "알아차리": 7360, "지킨": 7361, "영세": 7362, "패배": 7363, "포스터": 7364, "브로드웨이": 7365, "덩이": 7366, "##상스": 7367, "대축제": 7368, "승률": 7369, "시제품": 7370, "me": 7371, "별안간": 7372, "무기력": 7373, "이태": 7374, "뽑아내": 7375, "기대감": 7376, "시그널": 7377, "김옥균": 7378, "##조합": 7379, "안개": 7380, "초밥": 7381, "##용지": 7382, "단단": 7383, "담판": 7384, "한인": 7385, "##ement": 7386, "수사학": 7387, "창조주": 7388, "희비": 7389, "특권": 7390, "신문": 7391, "신춘": 7392, "도봉": 7393, "##저만": 7394, "은지": 7395, "설명서": 7396, "식당": 7397, "AFP": 7398, "비일비재": 7399, "80": 7400, "듀얼": 7401, "돌이킬": 7402, "흉터": 7403, "##될": 7404, "##um": 7405, "방울": 7406, "단추": 7407, "위쪽": 7408, "인수위": 7409, "처벌": 7410, "##적거리": 7411, "유배": 7412, "장례": 7413, "##ger": 7414, "시끄러운": 7415, "부잣집": 7416, "강아지": 7417, "비싸": 7418, "##꿔": 7419, "급속도": 7420, "임상": 7421, "##티시": 7422, "렌지": 7423, "경향신문": 7424, "##ea": 7425, "초록": 7426, "무정": 7427, "폐기": 7428, "의정서": 7429, "##랬": 7430, "꾀": 7431, "그친": 7432, "##인트": 7433, "앞세우": 7434, "재회": 7435, "오묘": 7436, "보배": 7437, "손색": 7438, "미우": 7439, "학년": 7440, "입담": 7441, "시사": 7442, "되풀이": 7443, "##놔": 7444, "루수": 7445, "륭": 7446, "철제": 7447, "##투자증권": 7448, "##룩": 7449, "투스": 7450, "따른": 7451, "독보": 7452, "위드": 7453, "악": 7454, "바뀐": 7455, "##면": 7456, "남대문": 7457, "그로": 7458, "정해져": 7459, "동유럽": 7460, "승합": 7461, "응찰": 7462, "이이": 7463, "부스": 7464, "지나갔": 7465, "필연": 7466, "취업": 7467, "천혜": 7468, "92": 7469, "포트": 7470, "케이프": 7471, "박선": 7472, "질수록": 7473, "2500": 7474, "報": 7475, "누굴": 7476, "여직": 7477, "반": 7478, "##라도": 7479, "##고래": 7480, "창출": 7481, "성화": 7482, "##딸": 7483, "시외": 7484, "최종": 7485, "##폴리": 7486, "꾼": 7487, "렛츠": 7488, "휴양림": 7489, "화단": 7490, "면사무소": 7491, "##ens": 7492, "165": 7493, "##메이드": 7494, "도운": 7495, "잘못": 7496, "206": 7497, "의장단": 7498, "244": 7499, "급격": 7500, "한계선": 7501, "심기": 7502, "대감": 7503, "其": 7504, "텔레비전": 7505, "폐막식": 7506, "라고": 7507, "뮌헨": 7508, "학창": 7509, "go": 7510, "늙": 7511, "데려왔": 7512, "작곡가": 7513, "뾰": 7514, "##지오": 7515, "##게트": 7516, "흩어진": 7517, "금정": 7518, "메이지": 7519, "김지": 7520, "FP": 7521, "철근": 7522, "철조망": 7523, "청해": 7524, "역주": 7525, "백": 7526, "권하": 7527, "##ad": 7528, "맴돌": 7529, "전남": 7530, "타고": 7531, "고조선": 7532, "영업": 7533, "어기": 7534, "따라": 7535, "表": 7536, "쫓겨": 7537, "파라": 7538, "PK": 7539, "이유": 7540, "##덧": 7541, "감추": 7542, "착하": 7543, "소녀": 7544, "##킨다": 7545, "성사": 7546, "CIA": 7547, "등등": 7548, "추천": 7549, "녀": 7550, "윤증": 7551, "실거": 7552, "신생아": 7553, "불면증": 7554, "처": 7555, "노숙인": 7556, "북유럽": 7557, "하여간": 7558, "포커스": 7559, "입주": 7560, "##랑": 7561, "아이언": 7562, "친형": 7563, "보수당": 7564, "설사": 7565, "오명": 7566, "책자": 7567, "정진": 7568, "##라면": 7569, "저놈": 7570, "활성": 7571, "혁": 7572, "내부": 7573, "##받침": 7574, "골든": 7575, "그립": 7576, "대열": 7577, "##긋": 7578, "플래너": 7579, "##conom": 7580, "Se": 7581, "샌드": 7582, "가급": 7583, "봄": 7584, "本": 7585, "즉석": 7586, "다락": 7587, "치러졌": 7588, "1991": 7589, "팽": 7590, "들어온": 7591, "억제": 7592, "##오": 7593, "번졌": 7594, "모나": 7595, "오디오": 7596, "계략": 7597, "도저히": 7598, "어쩔": 7599, "시호": 7600, "##착오": 7601, "포": 7602, "사르": 7603, "교수진": 7604, "시": 7605, "35": 7606, "미네르바": 7607, "##AN": 7608, "브릭스": 7609, "##페르": 7610, "스모": 7611, "어우": 7612, "##빨리": 7613, "박탈감": 7614, "콘퍼런스": 7615, "선수단": 7616, "혈전": 7617, "이리": 7618, "##사장": 7619, "오사": 7620, "마주치": 7621, "빨래": 7622, "현대제철": 7623, "모처럼": 7624, "육": 7625, "리차": 7626, "결혼식": 7627, "##굳": 7628, "##냠": 7629, "사제": 7630, "조심": 7631, "여러": 7632, "가끔": 7633, "모티브": 7634, "고교": 7635, "무수": 7636, "마주친": 7637, "사라": 7638, "광역자치단체": 7639, "내실": 7640, "224": 7641, "##ledge": 7642, "부원": 7643, "온난": 7644, "끝냈": 7645, "장도": 7646, "##ings": 7647, "착실": 7648, "고마": 7649, "대해서": 7650, "##제한": 7651, "다기": 7652, "현장": 7653, "new": 7654, "##미아": 7655, "연행": 7656, "레인보우": 7657, "두드러진": 7658, "##폭풍": 7659, "보태": 7660, "지원금": 7661, "##gram": 7662, "##카오": 7663, "국민은행": 7664, "건너뛰": 7665, "##라노": 7666, "이때": 7667, "던지": 7668, "##유산": 7669, "신중": 7670, "다각도": 7671, "제재": 7672, "가담": 7673, "Cre": 7674, "너무나": 7675, "요점": 7676, "국판": 7677, "##수리": 7678, "타임즈": 7679, "아냐": 7680, "신원": 7681, "액수": 7682, "##낀": 7683, "##ran": 7684, "##찾": 7685, "나트": 7686, "##쩌": 7687, "##니티": 7688, "##린내": 7689, "숙주": 7690, "소유": 7691, "올랐": 7692, "예스": 7693, "기말": 7694, "가사": 7695, "이질": 7696, "김대중": 7697, "휴양지": 7698, "유흥업소": 7699, "바닷물": 7700, "##틀리": 7701, "묵직": 7702, "재주": 7703, "리더": 7704, "수족관": 7705, "썽": 7706, "경쟁사": 7707, "프리": 7708, "사업장": 7709, "벅스": 7710, "선한": 7711, "시차": 7712, "우완": 7713, "끝마": 7714, "##전": 7715, "##탕": 7716, "여론": 7717, "설정": 7718, "##금": 7719, "시음": 7720, "##아": 7721, "차비": 7722, "여하튼": 7723, "##맥주": 7724, "가속": 7725, "준수": 7726, "회계사": 7727, "코란": 7728, "신안": 7729, "신청자": 7730, "17": 7731, "신안군": 7732, "빈손": 7733, "펼쳐진다": 7734, "진단": 7735, "에디션": 7736, "팡": 7737, "다승": 7738, "2050": 7739, "허리": 7740, "인사이드": 7741, "여의치": 7742, "##뚱": 7743, "모으": 7744, "내게는": 7745, "뽐내": 7746, "준영": 7747, "아운": 7748, "강점": 7749, "응하": 7750, "방기": 7751, "컴퓨": 7752, "가까": 7753, "흐트": 7754, "원점": 7755, "타이밍": 7756, "끊겨": 7757, "취해서": 7758, "##달리": 7759, "원제": 7760, "박완": 7761, "이오": 7762, "오두": 7763, "이광": 7764, "배양": 7765, "둔다": 7766, "제대로": 7767, "바꾸": 7768, "레일": 7769, "##낫": 7770, "DD": 7771, "정말": 7772, "상여": 7773, "가방": 7774, "쉼": 7775, "천연기념물": 7776, "관세": 7777, "브론": 7778, "도시바": 7779, "플라스틱": 7780, "발코니": 7781, "도주": 7782, "개학": 7783, "EX": 7784, "감자": 7785, "이낙연": 7786, "톡톡": 7787, "산지": 7788, "거미줄": 7789, "지크": 7790, "회고록": 7791, "야구단": 7792, "1300": 7793, "使": 7794, "그만큼": 7795, "거쳤": 7796, "무턱": 7797, "형식": 7798, "당연": 7799, "아랍": 7800, "자부심": 7801, "저러": 7802, "천일염": 7803, "묵": 7804, "청량리": 7805, "솜씨": 7806, "##MS": 7807, "##시간": 7808, "지침서": 7809, "갤럭시": 7810, "중개업": 7811, "측은": 7812, "하도": 7813, "정거장": 7814, "사로잡힌": 7815, "뚜렷이": 7816, "유독": 7817, "커튼": 7818, "여종": 7819, "하이데": 7820, "높인다": 7821, "스타킹": 7822, "성황리": 7823, "꿨": 7824, "##yle": 7825, "매겨": 7826, "상향": 7827, "PH": 7828, "앤디": 7829, "마음먹": 7830, "제작사": 7831, "쟁의": 7832, "나토": 7833, "찻": 7834, "김연경": 7835, "세웠": 7836, "메르세데스": 7837, "엔터": 7838, "문지": 7839, "과감": 7840, "재산": 7841, "##연료": 7842, "아래쪽": 7843, "백과": 7844, "공경": 7845, "경영자": 7846, "순식간": 7847, "줄인다": 7848, "판로": 7849, "하룻밤": 7850, "재정부": 7851, "행태": 7852, "다각화": 7853, "사치": 7854, "의기": 7855, "심심": 7856, "102": 7857, "물길": 7858, "MICE": 7859, "##합성": 7860, "##꾼": 7861, "2900": 7862, "총독부": 7863, "행할": 7864, "모였": 7865, "집대성": 7866, "불순": 7867, "하버드": 7868, "예시": 7869, "인내심": 7870, "##뉘": 7871, "고려": 7872, "용지": 7873, "탐라": 7874, "##자매": 7875, "죽이": 7876, "##진다면": 7877, "기록물": 7878, "폴리": 7879, "집값": 7880, "##마다": 7881, "##라이터": 7882, "형질": 7883, "유연": 7884, "##뉴": 7885, "고양": 7886, "고아": 7887, "독감": 7888, "숨통": 7889, "수목": 7890, "기점": 7891, "구력": 7892, "용문": 7893, "86": 7894, "국공": 7895, "음악": 7896, "송곳": 7897, "무료": 7898, "차출": 7899, "착": 7900, "플로리": 7901, "물음": 7902, "참고인": 7903, "불린": 7904, "휴가": 7905, "●": 7906, "##상": 7907, "대책": 7908, "점심": 7909, "용맹": 7910, "후미": 7911, "종": 7912, "유선": 7913, "##이너": 7914, "셀카": 7915, "최형우": 7916, "청각": 7917, "되살아나": 7918, "캐디": 7919, "분포": 7920, "판결문": 7921, "이데올로기": 7922, "교통망": 7923, "##목": 7924, "완제품": 7925, "자만": 7926, "충실하": 7927, "안테나": 7928, "##그마": 7929, "레이더": 7930, "윽": 7931, "대흥": 7932, "매트": 7933, "말미": 7934, "Gr": 7935, "컬럼비아": 7936, "껄": 7937, "육박": 7938, "셰일가스": 7939, "저거": 7940, "종족": 7941, "봅": 7942, "팔아먹": 7943, "취한다": 7944, "상하이": 7945, "간선": 7946, "명당": 7947, "공무원": 7948, "박미": 7949, "교제": 7950, "물든": 7951, "포획": 7952, "잘사": 7953, "브리지": 7954, "##TV": 7955, "##지방": 7956, "##흑": 7957, "허덕이": 7958, "스튜어": 7959, "지나갈": 7960, "주인": 7961, "##금니": 7962, "218": 7963, "##팽이": 7964, "##단체": 7965, "원금": 7966, "방편": 7967, "184": 7968, "곤두세우": 7969, "국민대": 7970, "馬": 7971, "##극장": 7972, "브레이크": 7973, "흡사": 7974, "라틴어": 7975, "관념": 7976, "함성": 7977, "박재": 7978, "렁": 7979, "검사": 7980, "##ection": 7981, "버무": 7982, "시나리오": 7983, "##택시": 7984, "배상문": 7985, "종료": 7986, "투여": 7987, "다룬": 7988, "일념": 7989, "증": 7990, "期": 7991, "영재교육": 7992, "개도국": 7993, "무주": 7994, "춘천시": 7995, "골수": 7996, "Joh": 7997, "크나": 7998, "번거": 7999, "후진": 8000, "탕": 8001, "예예": 8002, "서병": 8003, "내막": 8004, "병행": 8005, "##탄": 8006, "삭제": 8007, "드릴": 8008, "몽": 8009, "내부자": 8010, "중심지": 8011, "정기예금": 8012, "베토": 8013, "파헤": 8014, "##tis": 8015, "경작": 8016, "身": 8017, "##덤": 8018, "온다면": 8019, "인칭": 8020, "덕수궁": 8021, "잃어버린": 8022, "비서실": 8023, "인쇄": 8024, "주유": 8025, "북경": 8026, "비정": 8027, "##×": 8028, "배웠": 8029, "메이저": 8030, "취향": 8031, "굿": 8032, "발부": 8033, "별개": 8034, "새겨져": 8035, "##집트": 8036, "수도권": 8037, "중앙선": 8038, "굳히": 8039, "전시회": 8040, "이충": 8041, "셔츠": 8042, "뒤지": 8043, "대적": 8044, "여진": 8045, "그물": 8046, "니트": 8047, "대령": 8048, "둔갑": 8049, "내세울": 8050, "##현동": 8051, "목적물": 8052, "언덕": 8053, "연단": 8054, "박광": 8055, "커쇼": 8056, "태어난": 8057, "컨셉": 8058, "군림": 8059, "복안": 8060, "문재인": 8061, "##주의": 8062, "##극": 8063, "토트": 8064, "주워": 8065, "이산화": 8066, "넘기": 8067, "달아": 8068, "오른다": 8069, "반딧": 8070, "했잖아요": 8071, "##향": 8072, "##ound": 8073, "젓갈": 8074, "한국식": 8075, "귀금속": 8076, "##나타": 8077, "울렸": 8078, "그레": 8079, "고하": 8080, "선행": 8081, "##ple": 8082, "##23": 8083, "쉴": 8084, "승부처": 8085, "피부색": 8086, "서재": 8087, "KI": 8088, "핵": 8089, "모사": 8090, "불출석": 8091, "유머": 8092, "심포니": 8093, "수익자": 8094, "##늙": 8095, "언뜻": 8096, "##증": 8097, "영희": 8098, "최지": 8099, "##덕": 8100, "제발": 8101, "발가락": 8102, "끈질기": 8103, "매일": 8104, "##엔": 8105, "水": 8106, "은닉": 8107, "영업자": 8108, "묵인": 8109, "휩싸이": 8110, "아메리카": 8111, "조회": 8112, "정상": 8113, "바지": 8114, "##품": 8115, "방사능": 8116, "생리": 8117, "우리투자증권": 8118, "─": 8119, "단일": 8120, "##추세츠": 8121, "##은사": 8122, "다가온다": 8123, "##꾸미": 8124, "##식간": 8125, "당분": 8126, "강세": 8127, "교습": 8128, "일관": 8129, "선동": 8130, "려다가": 8131, "인다": 8132, "부두": 8133, "악행": 8134, "재질": 8135, "물꼬": 8136, "##푼": 8137, "빙": 8138, "關": 8139, "억": 8140, "사진": 8141, "시대": 8142, "수술": 8143, "종류": 8144, "프로필": 8145, "##이도": 8146, "박주": 8147, "일용직": 8148, "부상자": 8149, "스탠퍼드": 8150, "포스트모더니즘": 8151, "##시코": 8152, "까닭": 8153, "환영": 8154, "인한": 8155, "⑤": 8156, "주가": 8157, "양도세": 8158, "1971": 8159, "남짓": 8160, "오솔길": 8161, "##섹": 8162, "암컷": 8163, "QR": 8164, "##쪄": 8165, "인데다": 8166, "##yst": 8167, "유유히": 8168, "싱가포르": 8169, "베트": 8170, "초대": 8171, "로크": 8172, "파르": 8173, "권익": 8174, "##22": 8175, "육류": 8176, "##김없이": 8177, "퇴": 8178, "페널티킥": 8179, "날아들": 8180, "##략": 8181, "순진": 8182, "응급": 8183, "ex": 8184, "풍토": 8185, "무슬림": 8186, "덜": 8187, "원은": 8188, "기억": 8189, "발자국": 8190, "환생": 8191, "천하": 8192, "##uch": 8193, "Power": 8194, "강영": 8195, "수세": 8196, "느낌": 8197, "찻잔": 8198, "노란": 8199, "졸": 8200, "태백": 8201, "천변": 8202, "##ald": 8203, "퍼부": 8204, "조만간": 8205, "원론": 8206, "춘": 8207, "허정": 8208, "##리스타": 8209, "##란": 8210, "##ide": 8211, "깃들": 8212, "두른": 8213, "##셉": 8214, "국민체육진흥": 8215, "속여": 8216, "김연아": 8217, "어마어마": 8218, "늘어나": 8219, "중도금": 8220, "감행": 8221, "참모": 8222, "엿볼": 8223, "무고": 8224, "2030": 8225, "공채": 8226, "##걸이": 8227, "김의": 8228, "진정서": 8229, "CR": 8230, "스포츠": 8231, "튿": 8232, "間": 8233, "지킴": 8234, "로저스": 8235, "내야": 8236, "##태평": 8237, "황우여": 8238, "91": 8239, "ㄹ": 8240, "##드시": 8241, "보스턴": 8242, "달달": 8243, "상정": 8244, "##질서": 8245, "경성": 8246, "강했": 8247, "##iter": 8248, "수상자": 8249, "터전": 8250, "보안법": 8251, "근린": 8252, "노리": 8253, "##색": 8254, "첼로": 8255, "정무": 8256, "옥상": 8257, "주조": 8258, "친척": 8259, "환급": 8260, "불러들여": 8261, "타이틀": 8262, "안착": 8263, "##가요": 8264, "후손": 8265, "##려서": 8266, "김수": 8267, "주장": 8268, "학제": 8269, "키움": 8270, "기도회": 8271, "단돈": 8272, "##세우": 8273, "날까": 8274, "엄숙": 8275, "후계": 8276, "묵묵": 8277, "##오피아": 8278, "##잖아요": 8279, "정년": 8280, "##휴가": 8281, "아야": 8282, "이뻐": 8283, "##oul": 8284, "##이다": 8285, "칼칼": 8286, "삼계": 8287, "not": 8288, "하이데거": 8289, "오랫동안": 8290, "춤추": 8291, "##㎥": 8292, "##alk": 8293, "##칼리": 8294, "기피": 8295, "##휴": 8296, "토드": 8297, "최전": 8298, "3600": 8299, "##식당": 8300, "위탁": 8301, "내추럴": 8302, "교통부": 8303, "col": 8304, "##션": 8305, "##우주": 8306, "정수장": 8307, "계시": 8308, "천지": 8309, "WSJ": 8310, "뒤처": 8311, "팔릴": 8312, "바라본다": 8313, "하나같이": 8314, "혈통": 8315, "이순": 8316, "외롭": 8317, "레버": 8318, "난간": 8319, "얘길": 8320, "선임": 8321, "##덴": 8322, "매몰": 8323, "산입": 8324, "풋풋": 8325, "반가": 8326, "박지원": 8327, "바뀌": 8328, "감탄사": 8329, "급식비": 8330, "보수": 8331, "##꽝": 8332, "외딴": 8333, "페이": 8334, "EV": 8335, "산나물": 8336, "개종": 8337, "주인공": 8338, "힘차": 8339, "합산": 8340, "이왕이면": 8341, "this": 8342, "피로감": 8343, "You": 8344, "드나드": 8345, "디지털": 8346, "불멸": 8347, "자행": 8348, "지로": 8349, "파괴력": 8350, "금융": 8351, "단군": 8352, "박한": 8353, "뒤따르": 8354, "건축가": 8355, "미생": 8356, "33": 8357, "103": 8358, "오디션": 8359, "표적": 8360, "시경": 8361, "우세": 8362, "##벼락": 8363, "로스앤젤레스": 8364, "추론": 8365, "##기계": 8366, "닥친": 8367, "이중": 8368, "구출": 8369, "섭": 8370, "아예": 8371, "엇갈렸": 8372, "교인": 8373, "하등": 8374, "##병대": 8375, "##홍": 8376, "포터": 8377, "기쁘": 8378, "등기": 8379, "짠": 8380, "꺼진": 8381, "##왔": 8382, "구축": 8383, "이화": 8384, "傳": 8385, "전자": 8386, "##∙": 8387, "깬": 8388, "벗겨": 8389, "대서": 8390, "진중": 8391, "헌병": 8392, "청송": 8393, "둥근": 8394, "유예": 8395, "팀": 8396, "통용": 8397, "답습": 8398, "칼빈": 8399, "##스트로": 8400, "로켓": 8401, "누리": 8402, "커리큘럼": 8403, "퍼졌": 8404, "메일": 8405, "자신감": 8406, "보따리": 8407, "감싼": 8408, "부딪": 8409, "지상파": 8410, "속히": 8411, "##신": 8412, "사대": 8413, "숙식": 8414, "양도": 8415, "과부": 8416, "##껌": 8417, "제휴": 8418, "성인": 8419, "날치기": 8420, "더더욱": 8421, "IS": 8422, "뒤쫓": 8423, "정오": 8424, "##남동": 8425, "MBN": 8426, "소위원회": 8427, "끄덕": 8428, "찾아간다": 8429, "##총": 8430, "유전체": 8431, "연근": 8432, "##그릇": 8433, "##etter": 8434, "1910": 8435, "2700": 8436, "##AA": 8437, "가다듬": 8438, "황소": 8439, "모태": 8440, "샤이": 8441, "금세": 8442, "도마뱀": 8443, "접합": 8444, "설욕": 8445, "합격": 8446, "무모": 8447, "숙부": 8448, "덕택": 8449, "WTO": 8450, "##펴": 8451, "들어섰": 8452, "미치": 8453, "카메": 8454, "##없": 8455, "머스": 8456, "딜러": 8457, "지경": 8458, "봐": 8459, "대관령": 8460, "일감": 8461, "엘": 8462, "이권": 8463, "농부": 8464, "홍준표": 8465, "유아": 8466, "정반대": 8467, "살균": 8468, "외양": 8469, "도달": 8470, "##가스": 8471, "##건조": 8472, "묶여": 8473, "Win": 8474, "벳": 8475, "챙길": 8476, "댈": 8477, "들리": 8478, "1909": 8479, "빌리지": 8480, "디자이너": 8481, "사저": 8482, "췌장": 8483, "경계선": 8484, "조련": 8485, "ET": 8486, "억눌": 8487, "배부": 8488, "피아": 8489, "혼란": 8490, "##층": 8491, "만화책": 8492, "##또": 8493, "테일러": 8494, "##per": 8495, "되묻": 8496, "##러워": 8497, "맹": 8498, "공감": 8499, "하이트": 8500, "내수": 8501, "가시": 8502, "선제골": 8503, "스스럼": 8504, "##데이트": 8505, "정운찬": 8506, "중산": 8507, "##라이": 8508, "##챔": 8509, "호응": 8510, "김광현": 8511, "예뻐": 8512, "연초": 8513, "태교": 8514, "체제": 8515, "상한": 8516, "차린": 8517, "감염": 8518, "낙태": 8519, "##맷": 8520, "달라졌": 8521, "다녀야": 8522, "Comm": 8523, "생겨났": 8524, "초교": 8525, "결석": 8526, "이력서": 8527, "##천군": 8528, "측": 8529, "덕수": 8530, "막힌": 8531, "정두": 8532, "ㅇ": 8533, "언더": 8534, "서강대": 8535, "##좇": 8536, "커다란": 8537, "허술": 8538, "in": 8539, "사운드": 8540, "까다로운": 8541, "의리": 8542, "지긋지긋": 8543, "고위층": 8544, "양당": 8545, "##묵": 8546, "연소": 8547, "깝": 8548, "피곤": 8549, "##곡동": 8550, "차원": 8551, "태극": 8552, "월등": 8553, "띠": 8554, "생물": 8555, "支": 8556, "##뽑": 8557, "꿇": 8558, "사려": 8559, "##here": 8560, "자부": 8561, "관저": 8562, "버버리": 8563, "신축": 8564, "대부분": 8565, "접했": 8566, "##탬": 8567, "##업소": 8568, "원한다": 8569, "거주": 8570, "해제": 8571, "회관": 8572, "아킬": 8573, "236": 8574, "슈퍼마켓": 8575, "140": 8576, "명": 8577, "정류장": 8578, "##붐": 8579, "배회": 8580, "발사": 8581, "미용실": 8582, "1924": 8583, "##윽": 8584, "단련": 8585, "믹": 8586, "##ner": 8587, "가르쳐야": 8588, "과하": 8589, "패스트": 8590, "】": 8591, "맥박": 8592, "반해": 8593, "효용": 8594, "일반": 8595, "강자": 8596, "흥미진진": 8597, "아카데미": 8598, "명동": 8599, "힐러리": 8600, "외교": 8601, "준용": 8602, "곶": 8603, "바그": 8604, "가리켜": 8605, "총체": 8606, "그토록": 8607, "맛": 8608, "속상": 8609, "역삼": 8610, "아브라함": 8611, "도보": 8612, "ㆍ영": 8613, "자타": 8614, "김한길": 8615, "고집": 8616, "착륙": 8617, "강해졌": 8618, "보직": 8619, "므": 8620, "##처치": 8621, "면": 8622, "##리카": 8623, "당뇨병": 8624, "꾸려": 8625, "후려": 8626, "노량진": 8627, "##니스": 8628, "의류": 8629, "디즈니": 8630, "여배우": 8631, "요즈음": 8632, "무리": 8633, "##obal": 8634, "악성": 8635, "찻집": 8636, "##핀": 8637, "제동": 8638, "##섬유": 8639, "수로": 8640, "선망": 8641, "트이": 8642, "김흥": 8643, "관영": 8644, "펼칠": 8645, "LCD": 8646, "명품": 8647, "##벌레": 8648, "##티브": 8649, "두세": 8650, "배열": 8651, "##과이": 8652, "증명서": 8653, "곳곳": 8654, "##지르": 8655, "계발": 8656, "장이": 8657, "팝업": 8658, "179": 8659, "힌두": 8660, "휴전": 8661, "##뤘": 8662, "옛날": 8663, "##높이": 8664, "쉐보레": 8665, "##alue": 8666, "##뺐": 8667, "}": 8668, "하한": 8669, "##균관": 8670, "전망": 8671, "##eck": 8672, "시에": 8673, "완연": 8674, "질책": 8675, "##되": 8676, "##EZ": 8677, "진보신": 8678, "거슬러": 8679, "과민": 8680, "거미": 8681, "토성": 8682, "송파구": 8683, "배지": 8684, "##지막": 8685, "느슨": 8686, "공무": 8687, "##뜨렸": 8688, "명도": 8689, "비평가": 8690, "가치": 8691, "개인": 8692, "信": 8693, "챘": 8694, "앞당": 8695, "이국": 8696, "개점": 8697, "담겨": 8698, "##바키아": 8699, "어수선": 8700, "##타리": 8701, "자르": 8702, "플렉스": 8703, "후퇴": 8704, "토막": 8705, "##뛸": 8706, "宗": 8707, "피신": 8708, "변조": 8709, "근저": 8710, "##les": 8711, "##맣": 8712, "위원장": 8713, "##뢰즈": 8714, "볼보": 8715, "출소": 8716, "사교": 8717, "강남": 8718, "히": 8719, "선량": 8720, "반복": 8721, "까다": 8722, "베이직": 8723, "읽힌다": 8724, "막강": 8725, "댔": 8726, "놓치": 8727, "예문": 8728, "재가": 8729, "개체": 8730, "##ution": 8731, "복음서": 8732, "첩": 8733, "가벼운": 8734, "살아왔": 8735, "격려": 8736, "소지품": 8737, "##문트": 8738, "출원": 8739, "시발점": 8740, "불과": 8741, "이니": 8742, "타율": 8743, "답사": 8744, "어울려": 8745, "팅": 8746, "손질": 8747, "義": 8748, "82": 8749, "식": 8750, "손가락": 8751, "철수": 8752, "발판": 8753, "역설": 8754, "##훈": 8755, "맨": 8756, "부대찌개": 8757, "##정책": 8758, "##제품": 8759, "남북한": 8760, "커머스": 8761, "대박": 8762, "나왔었": 8763, "철폐": 8764, "디디": 8765, "오정": 8766, "##삼": 8767, "mar": 8768, "뮤지": 8769, "##az": 8770, "감히": 8771, "대변인": 8772, "원생": 8773, "깊이": 8774, "만화": 8775, "소비세": 8776, "##닿": 8777, "등락": 8778, "뜨겁": 8779, "典": 8780, "모빌": 8781, "##촬": 8782, "쌓이": 8783, "건너가": 8784, "성냥": 8785, "편지": 8786, "전위": 8787, "중급": 8788, "이뤄낸": 8789, "권위자": 8790, "##짠": 8791, "##체": 8792, "이": 8793, "나자": 8794, "성질": 8795, "내놓": 8796, "Pol": 8797, "찰스": 8798, "영등": 8799, "악순환": 8800, "양용": 8801, "평온": 8802, "##껏": 8803, "평균치": 8804, "수렵": 8805, "원지": 8806, "Will": 8807, "버": 8808, "진위": 8809, "##oe": 8810, "숲길": 8811, "스탈린": 8812, "부진": 8813, "바질": 8814, "좌중": 8815, "##익": 8816, "|": 8817, "달라지": 8818, "김성": 8819, "연습": 8820, "간단히": 8821, "##꼭": 8822, "반한": 8823, "선택지": 8824, "유키": 8825, "이뤘": 8826, "기념행사": 8827, "뱅킹": 8828, "World": 8829, "흐를": 8830, "워": 8831, "어떤지": 8832, "빚어낸": 8833, "##비": 8834, "소속": 8835, "출루": 8836, "산도": 8837, "##첨단": 8838, "다는데": 8839, "순전히": 8840, "나들이": 8841, "꾸밀": 8842, "종말": 8843, "##실베이니아": 8844, "모레": 8845, "저촉": 8846, "돼": 8847, "병아리": 8848, "회원": 8849, "구세": 8850, "반정부": 8851, "##ervice": 8852, "exp": 8853, "시킨": 8854, "트리트": 8855, "문진": 8856, "롯데마트": 8857, "아리스토텔레스": 8858, "비엔": 8859, "1963": 8860, "入": 8861, "평창동": 8862, "##혈증": 8863, "다릅니다": 8864, "둘러본": 8865, "구급차": 8866, "##연금": 8867, "소프라노": 8868, "정착": 8869, "##다보": 8870, "공장": 8871, "관해서": 8872, "민생": 8873, "지나쳐": 8874, "저금리": 8875, "불식": 8876, "프라이팬": 8877, "남겨진": 8878, "교직원": 8879, "송강": 8880, "버림": 8881, "반짝이": 8882, "괴상": 8883, "기": 8884, "벌인다": 8885, "##H": 8886, "승강기": 8887, "##행위": 8888, "숱한": 8889, "CP": 8890, "빈정": 8891, "추첨": 8892, "황사": 8893, "게릴라": 8894, "윈도": 8895, "해져": 8896, "빼앗": 8897, "학업": 8898, "런던": 8899, "피난": 8900, "필": 8901, "##헝": 8902, "쬐": 8903, "##hy": 8904, "특검": 8905, "대결": 8906, "추세": 8907, "분화": 8908, "불": 8909, "##댓": 8910, "변혁": 8911, "이동": 8912, "위안부": 8913, "1962": 8914, "아끼": 8915, "수양": 8916, "반려": 8917, "##답니다": 8918, "집중력": 8919, "##넘기": 8920, "희열": 8921, "##샛": 8922, "##led": 8923, "어항": 8924, "부정부패": 8925, "수능": 8926, "지탄": 8927, "대화": 8928, "진구": 8929, "지성사": 8930, "카자흐스탄": 8931, "천자": 8932, "김유": 8933, "##회의": 8934, "해태": 8935, "내홍": 8936, "들통": 8937, "닛": 8938, "소울": 8939, "조재": 8940, "##row": 8941, "가부": 8942, "재검": 8943, "이끌어냈": 8944, "왕조": 8945, "취한": 8946, "익숙": 8947, "파헤치": 8948, "##ao": 8949, "근무": 8950, "GM": 8951, "폭풍우": 8952, "오산": 8953, "서도": 8954, "행주": 8955, "선거인": 8956, "카지노": 8957, "##특구": 8958, "웅장": 8959, "얼룩": 8960, "질질": 8961, "체질": 8962, "남방": 8963, "##암": 8964, "이주": 8965, "음양": 8966, "##었": 8967, "내려왔": 8968, "개편": 8969, "양념": 8970, "부정": 8971, "경사": 8972, "##워프": 8973, "막아": 8974, "만들": 8975, "개운": 8976, "인기척": 8977, "중심": 8978, "약제": 8979, "졌으나": 8980, "광역": 8981, "경시": 8982, "##무니": 8983, "미일": 8984, "개정안": 8985, "토토": 8986, "관공서": 8987, "##사상": 8988, "초계": 8989, "적당": 8990, "##바이": 8991, "총": 8992, "교환": 8993, "토핑": 8994, "수준급": 8995, "##쓴": 8996, "스트레이트": 8997, "어쩌다": 8998, "펴": 8999, "##ㄱ": 9000, "진시황": 9001, "김현": 9002, "면도": 9003, "##츠": 9004, "변방": 9005, "발표": 9006, "반입": 9007, "지긋": 9008, "##ung": 9009, "올라오": 9010, "##커": 9011, "계층": 9012, "베이커리": 9013, "전생": 9014, "서명": 9015, "##뺑": 9016, "집사람": 9017, "이데": 9018, "아니한": 9019, "##츄": 9020, "www": 9021, "라우": 9022, "제곱": 9023, "부름": 9024, "##tical": 9025, "##테이션": 9026, "##취업": 9027, "탤런트": 9028, "현정": 9029, "느껴져": 9030, "잡음": 9031, "여기": 9032, "타지": 9033, "다툼": 9034, "##킴": 9035, "알린다": 9036, "1922": 9037, "갑옷": 9038, "위상": 9039, "사우나": 9040, "이겨": 9041, "건설업": 9042, "##음사": 9043, "후반기": 9044, "소이": 9045, "##oman": 9046, "수색": 9047, "승격": 9048, "버거": 9049, "능동": 9050, "하소연": 9051, "카페": 9052, "폭": 9053, "어쨌거나": 9054, "143": 9055, "OCI": 9056, "맞물려": 9057, "조업": 9058, "탈출": 9059, "처지": 9060, "유죄": 9061, "봉우리": 9062, "임야": 9063, "급기야": 9064, "기쁨": 9065, "v": 9066, "어허": 9067, "수현": 9068, "보일러": 9069, "정관": 9070, "몰아주": 9071, "들인": 9072, "##교섭": 9073, "법원": 9074, "1800": 9075, "##른다": 9076, "##뿔": 9077, "MMOR": 9078, "우습": 9079, "잡스": 9080, "##징계": 9081, "##ㅂ": 9082, "통화": 9083, "##MP": 9084, "골드만": 9085, "우스운": 9086, "수학여행": 9087, "사우스": 9088, "##하고": 9089, "미리": 9090, "214": 9091, "Mus": 9092, "안드레아": 9093, "일어난다": 9094, "문중": 9095, "입건": 9096, "거론": 9097, "살균제": 9098, "독식": 9099, "키워": 9100, "리라": 9101, "감독관": 9102, "후진타오": 9103, "감옥": 9104, "한화케미칼": 9105, "그어": 9106, "분신": 9107, "##음료": 9108, "생각났": 9109, "보신": 9110, "인문": 9111, "굴착": 9112, "디스플레이": 9113, "해야지": 9114, "동사": 9115, "회기": 9116, "상무": 9117, "겟": 9118, "편법": 9119, "김남": 9120, "##딛": 9121, "김병준": 9122, "상용": 9123, "병원": 9124, "##더위": 9125, "염려": 9126, "날라": 9127, "토요": 9128, "저술": 9129, "가난": 9130, "코르": 9131, "한": 9132, "공민왕": 9133, "##쫄": 9134, "중생": 9135, "그럴까": 9136, "땠": 9137, "안보": 9138, "둘러볼": 9139, "조부": 9140, "채취": 9141, "101": 9142, "횟수": 9143, "솔깃": 9144, "안락": 9145, "뻐": 9146, "##밟": 9147, "##신호": 9148, "빈": 9149, "wh": 9150, "사단": 9151, "##히로": 9152, "이씨": 9153, "##54": 9154, "청장": 9155, "쏠림": 9156, "파생": 9157, "갈라지": 9158, "금과": 9159, "흔적": 9160, "메워": 9161, "단식": 9162, "샛": 9163, "ㆍ청": 9164, "끄덕였": 9165, "차려": 9166, "##우리": 9167, "빨강": 9168, "폭설": 9169, "커피": 9170, "상원": 9171, "내보냈": 9172, "1981": 9173, "한강": 9174, "완강": 9175, "가로수": 9176, "연애": 9177, "이어진": 9178, "피상": 9179, "##ze": 9180, "①": 9181, "주안점": 9182, "궁합": 9183, "흠칫": 9184, "굴리": 9185, "기웃": 9186, "낙관": 9187, "상장": 9188, "휙": 9189, "종업원": 9190, "CBS": 9191, "동심": 9192, "수아": 9193, "녹이": 9194, "말끔": 9195, "배정": 9196, "탈당": 9197, "잉여": 9198, "폐암": 9199, "Am": 9200, "조지아": 9201, "삭감": 9202, "##유진": 9203, "##짝": 9204, "##무성": 9205, "전후": 9206, "인스": 9207, "##게임": 9208, "영빈": 9209, "필리": 9210, "##제한구역": 9211, "매우": 9212, "탐방": 9213, "##²": 9214, "을까": 9215, "송년": 9216, "##수술": 9217, "##날레": 9218, "##용품": 9219, "##사이클": 9220, "쓸모": 9221, "예정일": 9222, "드려": 9223, "사항": 9224, "유령": 9225, "횡": 9226, "기폭": 9227, "지나": 9228, "인정": 9229, "##바일": 9230, "그런지": 9231, "##집니다": 9232, "##쏘": 9233, "대구은행": 9234, "수온": 9235, "블랙홀": 9236, "비틀즈": 9237, "넘친다": 9238, "없앤": 9239, "##된": 9240, "##버리": 9241, "영진": 9242, "넓혔": 9243, "주춤": 9244, "와트": 9245, "맞닥": 9246, "홍성": 9247, "봄꽃": 9248, "임의": 9249, "상승": 9250, "##아지": 9251, "의왕시": 9252, "특가": 9253, "사공": 9254, "SDI": 9255, "전광판": 9256, "문턱": 9257, "걍": 9258, "털어놨": 9259, "##보증": 9260, "닭고기": 9261, "105": 9262, "한파": 9263, "초입": 9264, "김상현": 9265, "리허설": 9266, "필요": 9267, "시아": 9268, "##ii": 9269, "立": 9270, "##뛰": 9271, "으로써": 9272, "후기": 9273, "##ttp": 9274, "개설": 9275, "원천": 9276, "재연": 9277, "그리드": 9278, "살인": 9279, "소재": 9280, "##ial": 9281, "듯": 9282, "양천": 9283, "##OA": 9284, "##그러": 9285, "총기": 9286, "재의": 9287, "116": 9288, "전열": 9289, "배변": 9290, "집회": 9291, "상추": 9292, "##코지": 9293, "하산": 9294, "교만": 9295, "##뜨려": 9296, "지망": 9297, "가져올": 9298, "포지션": 9299, "처박": 9300, "신문지": 9301, "설악": 9302, "힘들": 9303, "섀도우": 9304, "##령": 9305, "처남": 9306, "짜증": 9307, "고상": 9308, "삿": 9309, "시군": 9310, "한때": 9311, "매표소": 9312, "㎡": 9313, "뒤쪽": 9314, "대사": 9315, "칙": 9316, "생활비": 9317, "호소": 9318, "김태": 9319, "한낮": 9320, "직후": 9321, "도마": 9322, "상품권": 9323, "##가슴": 9324, "평점": 9325, "일간": 9326, "##어야": 9327, "사망자": 9328, "##티넨": 9329, "신데렐라": 9330, "협정": 9331, "이상득": 9332, "절망": 9333, "원리금": 9334, "거들": 9335, "op": 9336, "특임": 9337, "임박": 9338, "아메리카노": 9339, "유무": 9340, "##바위": 9341, "깨우": 9342, "난": 9343, "그걸로": 9344, "이론": 9345, "흔치": 9346, "방화": 9347, "번개": 9348, "자유민주주의": 9349, "바자": 9350, "##ream": 9351, "力": 9352, "사직": 9353, "전투기": 9354, "이집트": 9355, "연평균": 9356, "트래픽": 9357, "참기름": 9358, "평정": 9359, "적십자사": 9360, "##회계": 9361, "다그": 9362, "특성": 9363, "정석": 9364, "안상수": 9365, "정": 9366, "댓": 9367, "워낙": 9368, "작업": 9369, "개울": 9370, "네네": 9371, "Can": 9372, "팔리": 9373, "이덕": 9374, "해운대구": 9375, "폭염": 9376, "##하라": 9377, "동월": 9378, "OPEC": 9379, "그니": 9380, "크리": 9381, "##DA": 9382, "웨이터": 9383, "천식": 9384, "소모": 9385, "##re": 9386, "##무대": 9387, "스페인어": 9388, "낯선": 9389, "ㆍ성": 9390, "파노": 9391, "볼링": 9392, "어떨까": 9393, "날린": 9394, "귀족": 9395, "완만": 9396, "##켈": 9397, "겸용": 9398, "##TI": 9399, "인심": 9400, "과거사": 9401, "에밀": 9402, "류승": 9403, "독대": 9404, "폐지": 9405, "캔디": 9406, "강력": 9407, "VR": 9408, "독약": 9409, "조용필": 9410, "##ers": 9411, "기득": 9412, "IPA": 9413, "편중": 9414, "be": 9415, "정수기": 9416, "고깃": 9417, "##버터": 9418, "홀딩": 9419, "판례": 9420, "수출입": 9421, "##규어": 9422, "##세기": 9423, "물려": 9424, "특공": 9425, "##광장": 9426, "래": 9427, "##륙": 9428, "시너지": 9429, "고부": 9430, "출격": 9431, "대우건설": 9432, "등기부": 9433, "SK": 9434, "##츰": 9435, "동적": 9436, "생겼": 9437, "이어받": 9438, "스커트": 9439, "기획사": 9440, "해장": 9441, "구원": 9442, "섬진강": 9443, "광양시": 9444, "최남": 9445, "136": 9446, "##처분": 9447, "##버": 9448, "외고": 9449, "터미널": 9450, "자국": 9451, "생겨": 9452, "아세": 9453, "진기": 9454, "##가락": 9455, "데님": 9456, "##ey": 9457, "고맙": 9458, "기용": 9459, "울산시": 9460, "뱃길": 9461, "##별": 9462, "##제철": 9463, "클라이": 9464, "Ex": 9465, "당면": 9466, "성적": 9467, "접대": 9468, "접점": 9469, "응집": 9470, "혼선": 9471, "통감": 9472, "촬영": 9473, "시신": 9474, "원자력": 9475, "게이츠": 9476, "요거": 9477, "이롭": 9478, "오염": 9479, "밑그림": 9480, "그동안": 9481, "기차역": 9482, "모택동": 9483, "움직임": 9484, "참상": 9485, "광우병": 9486, "벅차": 9487, "역사가": 9488, "터트렸": 9489, "특화": 9490, "for": 9491, "악령": 9492, "기꺼": 9493, "심장병": 9494, "패밀리": 9495, "유미": 9496, "163": 9497, "검사장": 9498, "Law": 9499, "이직": 9500, "완치": 9501, "미나리": 9502, "##먼지": 9503, "SC": 9504, "NC": 9505, "##갤": 9506, "충족": 9507, "그만뒀": 9508, "불합격": 9509, "우후죽순": 9510, "늘린다": 9511, "특보": 9512, "##평": 9513, "CGV": 9514, "두꺼운": 9515, "최재": 9516, "강남역": 9517, "본디": 9518, "선주": 9519, "포섭": 9520, "갑": 9521, "우월": 9522, "생생": 9523, "##ler": 9524, "##amb": 9525, "사라져": 9526, "막대기": 9527, "첨가": 9528, "바란": 9529, "오션": 9530, "다녔": 9531, "부속": 9532, "중개": 9533, "창시자": 9534, "혼합": 9535, "##ue": 9536, "기인": 9537, "늬": 9538, "반론": 9539, "단맛": 9540, "동참": 9541, "로이드": 9542, "##지기": 9543, "my": 9544, "법조": 9545, "안목": 9546, "굽": 9547, "씹": 9548, "청진": 9549, "##팩트": 9550, "들러리": 9551, "시흥": 9552, "상표": 9553, "전전": 9554, "일쑤": 9555, "대비": 9556, "찢어진": 9557, "##토스": 9558, "##깬": 9559, "박홍": 9560, "벚꽃": 9561, "걸쳐": 9562, "에스프레소": 9563, "배척": 9564, "붙였": 9565, "스파": 9566, "비쌌": 9567, "##발": 9568, "취해": 9569, "홀리": 9570, "청구": 9571, "##느님": 9572, "의자": 9573, "급수": 9574, "유사": 9575, "아랍에미리트": 9576, "##ink": 9577, "피렌": 9578, "세세": 9579, "족발": 9580, "어지럼증": 9581, "미디어": 9582, "생긴다": 9583, "시시각각": 9584, "##경찰": 9585, "듬뿍": 9586, "죄": 9587, "경부고속도로": 9588, "놀라운": 9589, "스프링": 9590, "말기": 9591, "평택": 9592, "##보레": 9593, "오대": 9594, "따라갔": 9595, "평화상": 9596, "당겼": 9597, "##der": 9598, "투병": 9599, "##우": 9600, "백업": 9601, "##턱": 9602, "어민": 9603, "정지": 9604, "도선": 9605, "언제나": 9606, "도안": 9607, "굴복": 9608, "시커먼": 9609, "그야말로": 9610, "##ition": 9611, "길이": 9612, "들키": 9613, "왔었": 9614, "가칭": 9615, "얹": 9616, "돌이켜": 9617, "##으므로": 9618, "세터": 9619, "홀": 9620, "over": 9621, "벤치마킹": 9622, "언행": 9623, "파운드": 9624, "생존자": 9625, "뿌리": 9626, "어음": 9627, "신분": 9628, "##보라": 9629, "여간": 9630, "##엔지니어링": 9631, "뚝배기": 9632, "현역": 9633, "##ject": 9634, "정쟁": 9635, "##여왕": 9636, "비운": 9637, "사격장": 9638, "##us": 9639, "청원": 9640, "기업체": 9641, "경쟁자": 9642, "sub": 9643, "##듭니다": 9644, "##웬": 9645, "안겨": 9646, "잔류": 9647, "올가": 9648, "내렸": 9649, "권세": 9650, "원로": 9651, "못한": 9652, "시피": 9653, "여파": 9654, "야유": 9655, "루시": 9656, "맞벌이": 9657, "화음": 9658, "하루": 9659, "줄어들": 9660, "##러진다": 9661, "##좀": 9662, "고고": 9663, "담임": 9664, "영수": 9665, "사탄": 9666, "여소": 9667, "겉": 9668, "지워": 9669, "밥상": 9670, "저울": 9671, "지어야": 9672, "배꼽": 9673, "경영인": 9674, "상조": 9675, "빠를": 9676, "몰아붙이": 9677, "대전시": 9678, "##델": 9679, "진흙": 9680, "##소시효": 9681, "향유": 9682, "모른다": 9683, "복사": 9684, "미나": 9685, "기침": 9686, "추출물": 9687, "→": 9688, "이나마": 9689, "##ww": 9690, "무릅": 9691, "도외": 9692, "누른": 9693, "배드민턴": 9694, "나눈": 9695, "병변": 9696, "지켜": 9697, "인민공화국": 9698, "연봉": 9699, "벤트": 9700, "로고": 9701, "너도나도": 9702, "베토벤": 9703, "지하철역": 9704, "조차": 9705, "귀농": 9706, "절감": 9707, "##킷": 9708, "안쪽": 9709, "애쓴": 9710, "테": 9711, "야기": 9712, "강원도": 9713, "요강": 9714, "선사": 9715, "차입금": 9716, "구한다": 9717, "##뜸": 9718, "알레르기": 9719, "수공": 9720, "출산": 9721, "세입": 9722, "낸드": 9723, "당수": 9724, "불신": 9725, "외국인": 9726, "짐작": 9727, "분개": 9728, "부엌": 9729, "대위": 9730, "하정우": 9731, "외무성": 9732, "힘드": 9733, "가격대": 9734, "소니": 9735, "##매매": 9736, "재규어": 9737, "단시간": 9738, "보트": 9739, "얽매이": 9740, "부른": 9741, "기반": 9742, "숫": 9743, "##로움": 9744, "군": 9745, "난청": 9746, "서강": 9747, "프": 9748, "박성현": 9749, "은혜": 9750, "기압": 9751, "면죄": 9752, "되짚": 9753, "고의": 9754, "걷": 9755, "돌아온다": 9756, "##뚝": 9757, "발목": 9758, "외세": 9759, "다뤘": 9760, "내겐": 9761, "미화": 9762, "용접": 9763, "송시열": 9764, "마카오": 9765, "임시회": 9766, "전환": 9767, "중개업자": 9768, "##래도": 9769, "내던지": 9770, "떠안": 9771, "부녀자": 9772, "##제비": 9773, "송": 9774, "라트": 9775, "금감": 9776, "폭우": 9777, "태도": 9778, "조치": 9779, "##iety": 9780, "힘": 9781, "오자": 9782, "든든": 9783, "이주민": 9784, "관은": 9785, "##풍": 9786, "약속": 9787, "##ool": 9788, "쵸": 9789, "티켓": 9790, "##퇴": 9791, "잔혹": 9792, "위원회": 9793, "Poli": 9794, "준공": 9795, "하급": 9796, "덮쳐": 9797, "속박": 9798, "##스타인": 9799, "상권": 9800, "마포구": 9801, "퍼센트": 9802, "햄릿": 9803, "신세계": 9804, "빗장": 9805, "플래": 9806, "다던": 9807, "트라": 9808, "서약": 9809, "규모": 9810, "복지": 9811, "메기": 9812, "미스트": 9813, "튀겨": 9814, "터트": 9815, "##수무": 9816, "프린": 9817, "c": 9818, "간호학": 9819, "광산": 9820, "교주": 9821, "멈췄": 9822, "은서": 9823, "대차": 9824, "수액": 9825, "민간": 9826, "발맞": 9827, "목수": 9828, "강지": 9829, "그곳": 9830, "에바": 9831, "TOP": 9832, "대판": 9833, "지게": 9834, "셔도": 9835, "혐의": 9836, "블로": 9837, "역세": 9838, "까마": 9839, "물밑": 9840, "일주": 9841, "##ant": 9842, "조선족": 9843, "어딘": 9844, "뒷전": 9845, "양승": 9846, "로그인": 9847, "학번": 9848, "고도": 9849, "어정": 9850, "로드리": 9851, "AT": 9852, "신경전": 9853, "##효진": 9854, "된다면": 9855, "상영": 9856, "##씀": 9857, "갈래": 9858, "튼": 9859, "따온": 9860, "상담소": 9861, "주무관": 9862, "##거슨": 9863, "##컷뉴스": 9864, "미뤘": 9865, "##더": 9866, "걸요": 9867, "##인드": 9868, "편리": 9869, "필라델피아": 9870, "사귄": 9871, "뚫려": 9872, "안경": 9873, "민족주의": 9874, "괴로운": 9875, "협": 9876, "국보": 9877, "주체": 9878, "어쩌면": 9879, "하이드": 9880, "or": 9881, "원외": 9882, "지명": 9883, "뛴": 9884, "미지근": 9885, "##승환": 9886, "녹화": 9887, "장갑": 9888, "투옥": 9889, "상자": 9890, "리티": 9891, "1977": 9892, "애기": 9893, "맛볼": 9894, "##넉": 9895, "굳이": 9896, "선제": 9897, "강가": 9898, "##р": 9899, "만나": 9900, "해고": 9901, "형성": 9902, "나눠서": 9903, "곧이어": 9904, "구용": 9905, "어떠": 9906, "##출": 9907, "묘": 9908, "심정": 9909, "국학": 9910, "말차": 9911, "미정": 9912, "귀엽": 9913, "퉈": 9914, "LA": 9915, "일인": 9916, "념": 9917, "사로": 9918, "축소": 9919, "문란": 9920, "상인": 9921, "조깅": 9922, "스미스": 9923, "횡단": 9924, "닷컴": 9925, "열도": 9926, "##팝": 9927, "성행": 9928, "수리": 9929, "준칙": 9930, "벼랑": 9931, "##미술": 9932, "네덜란드": 9933, "투표율": 9934, "강조": 9935, "떠오른다": 9936, "야곱": 9937, "깨졌": 9938, "빔": 9939, "태풍": 9940, "##mann": 9941, "차일": 9942, "요셉": 9943, "묵묵히": 9944, "##ick": 9945, "2009": 9946, "펜션": 9947, "##코비치": 9948, "242": 9949, "서희": 9950, "유현": 9951, "푸짐": 9952, "##line": 9953, "교류": 9954, "루스": 9955, "이스라": 9956, "눈부신": 9957, "농약": 9958, "##젠": 9959, "중저가": 9960, "대해선": 9961, "##골": 9962, "군침": 9963, "ICT": 9964, "친분": 9965, "##우트": 9966, "종용": 9967, "앞세": 9968, "예요": 9969, "이자이": 9970, "햇빛": 9971, "아침밥": 9972, "우라늄": 9973, "여객기": 9974, "랍": 9975, "고사리": 9976, "Ro": 9977, "난도": 9978, "구단": 9979, "유": 9980, "놓이": 9981, "취약점": 9982, "관중": 9983, "목적": 9984, "의구심": 9985, "터미": 9986, "일조": 9987, "##하여": 9988, "브로콜리": 9989, "대명": 9990, "샌디에이고": 9991, "뿐": 9992, "쓸": 9993, "##팻": 9994, "끊긴": 9995, "수취": 9996, "태진": 9997, "출근길": 9998, "세계관": 9999, "모임": 10000, "갑작스럽": 10001, "침묵": 10002, "사전": 10003, "노동청": 10004, "Europe": 10005, "인조": 10006, "관리인": 10007, "##부아르": 10008, "And": 10009, "##녔": 10010, "꼬리표": 10011, "캐치": 10012, "파편": 10013, "소청": 10014, "##공원": 10015, "뛰어들": 10016, "저편": 10017, "공군": 10018, "장기": 10019, "갯": 10020, "덜컥": 10021, "중형": 10022, "제대": 10023, "준다고": 10024, "모모": 10025, "說": 10026, "태양": 10027, "정중히": 10028, "##oom": 10029, "집사": 10030, "##처": 10031, "놀이터": 10032, "업무": 10033, "스트로크": 10034, "간밤": 10035, "불러일으킨": 10036, "당론": 10037, "바이러스": 10038, "더욱": 10039, "보석": 10040, "##검": 10041, "망한": 10042, "그쪽": 10043, "시즈": 10044, "여도": 10045, "네이처": 10046, "나지막": 10047, "약정": 10048, "호의": 10049, "SI": 10050, "문화재": 10051, "해내": 10052, "통찰": 10053, "생색": 10054, "적대감": 10055, "추석": 10056, "빨리": 10057, "파노라마": 10058, "밸": 10059, "하체": 10060, "망치": 10061, "##홉": 10062, "조카": 10063, "미들": 10064, "처치": 10065, "##차": 10066, "육아": 10067, "##키": 10068, "역동": 10069, "브라": 10070, "수종": 10071, "760": 10072, "##짓": 10073, "강한": 10074, "류성": 10075, "##evel": 10076, "유년": 10077, "납부": 10078, "에버랜드": 10079, "지속": 10080, "저탄": 10081, "한명": 10082, "정원": 10083, "1900": 10084, "안일": 10085, "음직": 10086, "살리": 10087, "주무": 10088, "트릭": 10089, "티몬": 10090, "후광": 10091, "다녀간": 10092, "셉": 10093, "양산": 10094, "강동": 10095, "정직": 10096, "역모": 10097, "과": 10098, "리프팅": 10099, "##체능": 10100, "갖가지": 10101, "종로": 10102, "##데스": 10103, "들릴": 10104, "기단": 10105, "취사": 10106, "이병철": 10107, "합세": 10108, "##각": 10109, "잦": 10110, "만행": 10111, "그런": 10112, "고성장": 10113, "조미료": 10114, "##났": 10115, "생선": 10116, "불로": 10117, "박주선": 10118, "콘셉트": 10119, "마스터": 10120, "수없이": 10121, "스메": 10122, "##각층": 10123, "△": 10124, "금메달리스트": 10125, "세차": 10126, "악의": 10127, "연암": 10128, "소급": 10129, "新": 10130, "승상": 10131, "최악": 10132, "당혹": 10133, "로맨스": 10134, "z": 10135, "과학": 10136, "함수": 10137, "꼽": 10138, "##른": 10139, "수영복": 10140, "일어날": 10141, "##낱": 10142, "빌": 10143, "선봉": 10144, "##누스": 10145, "##ite": 10146, "LTV": 10147, "서슴없이": 10148, "쓰러지": 10149, "트레일러": 10150, "엄청난": 10151, "이번": 10152, "심대": 10153, "간이": 10154, "엑스": 10155, "짤막": 10156, "##g": 10157, "☆": 10158, "3700": 10159, "미사": 10160, "권총": 10161, "선충": 10162, "내려다": 10163, "리부": 10164, "Commun": 10165, "햇": 10166, "망토": 10167, "회유": 10168, "계곡": 10169, "##신저": 10170, "상소": 10171, "매": 10172, "지역주의": 10173, "##철도": 10174, "그제서야": 10175, "취급": 10176, "그래프": 10177, "##겐": 10178, "수속": 10179, "기후": 10180, "보이스": 10181, "올드": 10182, "주권": 10183, "뇨": 10184, "두려움": 10185, "은데": 10186, "門": 10187, "천국": 10188, "##덜": 10189, "동쪽": 10190, "##마드": 10191, "##인권": 10192, "상점": 10193, "나타내": 10194, "넥타이": 10195, "IOC": 10196, "내던": 10197, "인질": 10198, "거침없이": 10199, "져야": 10200, "출": 10201, "##낸": 10202, "의원": 10203, "숯": 10204, "즐겁": 10205, "재미": 10206, "바보": 10207, "지하": 10208, "##열차": 10209, "나뭇잎": 10210, "눈초리": 10211, "일족": 10212, "김관진": 10213, "요금제": 10214, "공모전": 10215, "화이팅": 10216, "아름다웠": 10217, "ㅜ": 10218, "일본어": 10219, "황희": 10220, "군주": 10221, "CD": 10222, "나지": 10223, "가상현실": 10224, "기념회": 10225, "즐거": 10226, "한라": 10227, "재야": 10228, "발휘": 10229, "세무사": 10230, "골프장": 10231, "을지로": 10232, "버팀": 10233, "##사리": 10234, "##ud": 10235, "##도로": 10236, "##아보": 10237, "옴니": 10238, "✔": 10239, "##시네마": 10240, "전미": 10241, "##먼트": 10242, "엔드": 10243, "OST": 10244, "종합": 10245, "##먹이": 10246, "노키아": 10247, "쇠고기": 10248, "세원": 10249, "플라자": 10250, "강하": 10251, "이를테면": 10252, "올라탔": 10253, "##eb": 10254, "빈곤": 10255, "마블": 10256, "다투": 10257, "서유": 10258, "지평선": 10259, "##곤": 10260, "쉽": 10261, "상속": 10262, "장한": 10263, "치맥": 10264, "득표율": 10265, "##홈": 10266, "떠올라": 10267, "하지원": 10268, "눌렀": 10269, "아이템": 10270, "혼재": 10271, "맥도": 10272, "아": 10273, "저소득층": 10274, "##력": 10275, "음악회": 10276, "감춰": 10277, "게르": 10278, "백종": 10279, "사스": 10280, "설령": 10281, "신도": 10282, "##50": 10283, "로마": 10284, "엘지": 10285, "##바로": 10286, "##타인": 10287, "자율": 10288, "##pp": 10289, "아유": 10290, "가했": 10291, "넥스트": 10292, "앞서": 10293, "훈련": 10294, "순자": 10295, "계몽주의": 10296, "폴로": 10297, "##핍": 10298, "담당": 10299, "전우": 10300, "알짜": 10301, "판명": 10302, "스테이트": 10303, "살아간다": 10304, "끌어내": 10305, "서초": 10306, "지나온": 10307, "##up": 10308, "끌어들": 10309, "사만": 10310, "열세": 10311, "스포": 10312, "촛불": 10313, "##괄": 10314, "방범": 10315, "할리우드": 10316, "애틀": 10317, "리베이트": 10318, "확": 10319, "가야": 10320, "우버": 10321, "로스쿨": 10322, "염소": 10323, "게시": 10324, "##맴": 10325, "전조": 10326, "노니": 10327, "신곡": 10328, "낸": 10329, "IC": 10330, "요리사": 10331, "격정": 10332, "사정": 10333, "##십시오": 10334, "이석기": 10335, "웃음": 10336, "공책": 10337, "감도": 10338, "##반도": 10339, "##피스": 10340, "채색": 10341, "미네": 10342, "컨트리": 10343, "증강": 10344, "##퓰": 10345, "실망감": 10346, "만석": 10347, "##쿠스": 10348, "Inc": 10349, "´": 10350, "컥": 10351, "142": 10352, "색소": 10353, "착실히": 10354, "틀어": 10355, "##놓": 10356, "##arm": 10357, "물질": 10358, "라자": 10359, "마스터스": 10360, "양화": 10361, "감성": 10362, "죽": 10363, "##충제": 10364, "##ro": 10365, "리어": 10366, "우대": 10367, "레이싱": 10368, "Per": 10369, "심해졌": 10370, "남양": 10371, "##피탈": 10372, "##als": 10373, "비용": 10374, "파고드": 10375, "고흥": 10376, "백자": 10377, "오바마": 10378, "권상": 10379, "븐": 10380, "총력": 10381, "이어서": 10382, "번쩍": 10383, "훔쳐": 10384, "285": 10385, "거리": 10386, "##ural": 10387, "중고": 10388, "거침없": 10389, "움푹": 10390, "잘라서": 10391, "1969": 10392, "업종": 10393, "송파": 10394, "객관적으로": 10395, "집어": 10396, "To": 10397, "안산": 10398, "꼭": 10399, "##푸": 10400, "졸지": 10401, "합성": 10402, "##컥": 10403, "최적화": 10404, "원본": 10405, "3": 10406, "학습지": 10407, "장원": 10408, "MM": 10409, "명세": 10410, "##ᆞ": 10411, "배달": 10412, "설상가상": 10413, "써야": 10414, "밸브": 10415, "피아노": 10416, "##시장": 10417, "기세": 10418, "그지": 10419, "모함": 10420, "수인": 10421, "포도": 10422, "##렙": 10423, "##픈": 10424, "놀랐": 10425, "##BS": 10426, "언성": 10427, "취수": 10428, "미켈란": 10429, "배운": 10430, "분배": 10431, "경직": 10432, "토리": 10433, "무더위": 10434, "화폐": 10435, "브라질": 10436, "중대": 10437, "고추장": 10438, "항고": 10439, "재상": 10440, "결합": 10441, "□": 10442, "멧돼지": 10443, "스텝": 10444, "미륵": 10445, "액세서리": 10446, "통한": 10447, "파이브": 10448, "ㆍ한": 10449, "##35": 10450, "##바이벌": 10451, "##아졌": 10452, "공매도": 10453, "##orean": 10454, "주거지": 10455, "증정": 10456, "신라면": 10457, "한반도": 10458, "적절히": 10459, "##환": 10460, "나경원": 10461, "##반기": 10462, "대로": 10463, "안건": 10464, "햄버거": 10465, "품절": 10466, "발매": 10467, "##ult": 10468, "의결권": 10469, "출력": 10470, "정몽구": 10471, "바티칸": 10472, "욕설": 10473, "로라": 10474, "탁자": 10475, "강북": 10476, "공공연": 10477, "신": 10478, "##net": 10479, "세미나": 10480, "내건": 10481, "입체": 10482, "##쭉": 10483, "##oon": 10484, "害": 10485, "등": 10486, "구보": 10487, "엄격히": 10488, "부처": 10489, "익살": 10490, "가창력": 10491, "진호": 10492, "뿌렸": 10493, "노": 10494, "##옵니다": 10495, "타국": 10496, "영화": 10497, "클레어": 10498, "톡": 10499, "키워드": 10500, "잇몸": 10501, "바깥쪽": 10502, "맺": 10503, "##증권": 10504, "뒷받침": 10505, "다이어": 10506, "##앙": 10507, "피": 10508, "##흡": 10509, "AR": 10510, "ℓ": 10511, "C": 10512, "야경": 10513, "순대": 10514, "토론자": 10515, "존재": 10516, "막말": 10517, "日": 10518, "충동": 10519, "밀레니엄": 10520, "남긴": 10521, "골라": 10522, "스포츠카": 10523, "모발": 10524, "수족": 10525, "알로": 10526, "며": 10527, "대별": 10528, "어떤": 10529, "후반부": 10530, "수입액": 10531, "##rain": 10532, "페리": 10533, "안양": 10534, "입학식": 10535, "메시아": 10536, "풀": 10537, "바빠": 10538, "기일": 10539, "간행": 10540, "파국": 10541, "680": 10542, "##샹": 10543, "꾀하": 10544, "아프가니스탄": 10545, "뿔뿔": 10546, "프라이머리": 10547, "태권": 10548, "##lic": 10549, "하드": 10550, "한결같이": 10551, "영역": 10552, "*": 10553, "통화량": 10554, "字": 10555, "겨드": 10556, "##사인": 10557, "국고": 10558, "生": 10559, "망했": 10560, "육회": 10561, "##비드": 10562, "신비": 10563, "넘쳤": 10564, "##회장": 10565, "산세": 10566, "예의": 10567, "손목시계": 10568, "쿠쿠": 10569, "노동당": 10570, "매번": 10571, "##윈": 10572, "대표": 10573, "꽉": 10574, "컵라면": 10575, "수거": 10576, "그윽": 10577, "몰래": 10578, "안성맞춤": 10579, "퓨어": 10580, "마자": 10581, "낯익": 10582, "필러": 10583, "고의로": 10584, "걸까": 10585, "활동비": 10586, "팟캐스트": 10587, "무언": 10588, "유출": 10589, "##바라지": 10590, "물증": 10591, "##셔닝": 10592, "아삭": 10593, "발췌": 10594, "더러운": 10595, "물리쳤": 10596, "용법": 10597, "원광": 10598, "성토": 10599, "마실": 10600, "고객": 10601, "분홍색": 10602, "가두": 10603, "텐": 10604, "핏": 10605, "##천면": 10606, "고선": 10607, "감정가": 10608, "떠드": 10609, "##얻": 10610, "중요": 10611, "바꿨": 10612, "좌표": 10613, "일차": 10614, "갱": 10615, "욱": 10616, "하마": 10617, "첨단": 10618, "帝": 10619, "189": 10620, "로즈": 10621, "정맥": 10622, "수천": 10623, "비법": 10624, "비닐봉": 10625, "재빠르": 10626, "양립": 10627, "##와": 10628, "흩어졌": 10629, "끓": 10630, "도피": 10631, "세출": 10632, "전라북도": 10633, "영양소": 10634, "먹": 10635, "극소수": 10636, "바이에른": 10637, "암": 10638, "Le": 10639, "솔루션": 10640, "일억": 10641, "콘서트": 10642, "라이온": 10643, "##밤": 10644, "고검": 10645, "극도": 10646, "##엌": 10647, "대해": 10648, "마오": 10649, "시달려": 10650, "해직": 10651, "포기": 10652, "##양이": 10653, "580": 10654, "별일": 10655, "차등": 10656, "軍": 10657, "##19": 10658, "선구자": 10659, "푸른": 10660, "##은이": 10661, "LPGA": 10662, "조선인": 10663, "안시": 10664, "국교": 10665, "트": 10666, "하고": 10667, "물품": 10668, "학습": 10669, "발주": 10670, "이발": 10671, "마르코": 10672, "득점": 10673, "##런": 10674, "##깅": 10675, "부채": 10676, "임상시험": 10677, "어질": 10678, "힘내": 10679, "가디언": 10680, "상납": 10681, "초급": 10682, "##버지": 10683, "건너갔": 10684, "선입견": 10685, "##뻘": 10686, "##end": 10687, "사탕": 10688, "내비치": 10689, "펴내": 10690, "온실가스": 10691, "핵무기": 10692, "잃": 10693, "Korea": 10694, "모양": 10695, "##숨": 10696, "9900": 10697, "짓밟": 10698, "실정": 10699, "뒷골목": 10700, "조선대": 10701, "될수록": 10702, "비닐": 10703, "공학부": 10704, "조형": 10705, "정남": 10706, "부록": 10707, "開": 10708, "박근": 10709, "투영": 10710, "버젓": 10711, "첼": 10712, "찰칵": 10713, "##닌": 10714, "초판": 10715, "자란": 10716, "메가": 10717, "윌슨": 10718, "됐으나": 10719, "조여": 10720, "어유": 10721, "케이티": 10722, "다간": 10723, "이뤄지": 10724, "이끌려": 10725, "갈라진": 10726, "장면": 10727, "정치력": 10728, "들어도": 10729, "도톰": 10730, "처해": 10731, "대체": 10732, "솜": 10733, "오픈": 10734, "높여": 10735, "##갈이": 10736, "첫선": 10737, "##뱃": 10738, "거나": 10739, "##다리": 10740, "가루": 10741, "터지": 10742, "한판": 10743, "입김": 10744, "꼭지": 10745, "증설": 10746, "까먹": 10747, "연평": 10748, "터뜨렸": 10749, "남향": 10750, "열정": 10751, "성실": 10752, "디렉": 10753, "뒤틀": 10754, "과시": 10755, "탄광": 10756, "무서운": 10757, "상공": 10758, "##드라": 10759, "나치": 10760, "변수": 10761, "가창": 10762, "##로우": 10763, "정우성": 10764, "대웅": 10765, "인가": 10766, "괴롭히": 10767, "친숙": 10768, "만반": 10769, "찬바람": 10770, "하락": 10771, "근육": 10772, "##럴": 10773, "슈트": 10774, "숙였": 10775, "포상금": 10776, "놀라울": 10777, "우미": 10778, "변명": 10779, "퍼지": 10780, "##모니": 10781, "강좌": 10782, "농구": 10783, "순순히": 10784, "지팡이": 10785, "이루어져야": 10786, "얼떨": 10787, "##곽": 10788, "반덤핑": 10789, "실소": 10790, "##개토": 10791, "양쪽": 10792, "채팅": 10793, "0": 10794, "코스모스": 10795, "공해": 10796, "콥": 10797, "##ange": 10798, "##ma": 10799, "피서객": 10800, "영문": 10801, "무작위": 10802, "時": 10803, "선": 10804, "詩": 10805, "상민": 10806, "##의식": 10807, "납치": 10808, "거포": 10809, "가발": 10810, "밑거름": 10811, "정계": 10812, "##든": 10813, "뽑히": 10814, "후면": 10815, "쉬": 10816, "부랴": 10817, "##퍼드": 10818, "서유럽": 10819, "재량": 10820, "이뤄져": 10821, "광기": 10822, "오롯": 10823, "백혈": 10824, "녹차": 10825, "Management": 10826, "깨어났": 10827, "중사": 10828, "대장정": 10829, "합병증": 10830, "태만": 10831, "아슬아슬": 10832, "##교통": 10833, "여비": 10834, "올라섰": 10835, "남다른": 10836, "서당": 10837, "괴롭힘": 10838, "빼돌": 10839, "데드": 10840, "연관": 10841, "하토": 10842, "사장": 10843, "피부과": 10844, "##ft": 10845, "속임수": 10846, "설비": 10847, "장밋빛": 10848, "다독": 10849, "##ham": 10850, "명하": 10851, "돌려보냈": 10852, "중남": 10853, "네이버": 10854, "몰수": 10855, "참담": 10856, "##ism": 10857, "##유업": 10858, "개발제한구역": 10859, "예리": 10860, "고이": 10861, "곳": 10862, "슬퍼하": 10863, "##백화점": 10864, "단백": 10865, "반신": 10866, "이항": 10867, "##쭈": 10868, "기숙": 10869, "오승환": 10870, "##돗": 10871, "##섭": 10872, "마음씨": 10873, "진두": 10874, "신촌": 10875, "성격": 10876, "##쩡": 10877, "로맨": 10878, "토기": 10879, "##공서": 10880, "일회성": 10881, "청취자": 10882, "불붙": 10883, "반문": 10884, "기절": 10885, "하차": 10886, "클린": 10887, "플루토": 10888, "뭇": 10889, "다가왔": 10890, "이건희": 10891, "비수": 10892, "머릿속": 10893, "태후": 10894, "엔딩": 10895, "##U": 10896, "신대": 10897, "연성": 10898, "타르": 10899, "의도": 10900, "스마트폰": 10901, "화성": 10902, "##어낸": 10903, "오세": 10904, "이루어질": 10905, "이라크": 10906, "미르": 10907, "소도시": 10908, "문건": 10909, "유격": 10910, "세수": 10911, "시보": 10912, "배고픈": 10913, "##들리": 10914, "초빙": 10915, "엄정": 10916, "장혁": 10917, "스트레칭": 10918, "아리아": 10919, "과감히": 10920, "논밭": 10921, "대등": 10922, "아마": 10923, "얼마간": 10924, "생산품": 10925, "##NG": 10926, "여장": 10927, "전학": 10928, "##ㅈ": 10929, "편입": 10930, "이득": 10931, "저래": 10932, "판매액": 10933, "끼치": 10934, "쌀쌀": 10935, "무력감": 10936, "##퀘": 10937, "챌": 10938, "늘어났": 10939, "발제": 10940, "닳": 10941, "##조치": 10942, "##tian": 10943, "##거지": 10944, "테너": 10945, "##림동": 10946, "제사장": 10947, "부가세": 10948, "안전벨트": 10949, "아늑": 10950, "아이콘": 10951, "에도": 10952, "브라우": 10953, "출시": 10954, "몬": 10955, "뒤엎": 10956, "##젤로": 10957, "상명": 10958, "신세계백화점": 10959, "##동네": 10960, "캐시": 10961, "표면": 10962, "정보": 10963, "공정위": 10964, "인터": 10965, "##활약": 10966, "마셔": 10967, "행여": 10968, "용이": 10969, "무등": 10970, "미술관": 10971, "당귀": 10972, "사적": 10973, "만져": 10974, "비대칭": 10975, "슈틸리케": 10976, "급증": 10977, "시금치": 10978, "##클랜드": 10979, "##수도": 10980, "병마": 10981, "포켓": 10982, "임파": 10983, "##곰": 10984, "확보": 10985, "착한": 10986, "수화": 10987, "##공격": 10988, "간결": 10989, "이재명": 10990, "보여": 10991, "치": 10992, "팔": 10993, "본받": 10994, "태릉": 10995, "완승": 10996, "CM": 10997, "장구": 10998, "민사": 10999, "된": 11000, "라네": 11001, "교육부": 11002, "욕조": 11003, "한대": 11004, "성종": 11005, "냉": 11006, "호미": 11007, "담가": 11008, "슨": 11009, "판매장": 11010, "공휴일": 11011, "소시": 11012, "이상민": 11013, "Communication": 11014, "선보일": 11015, "개인전": 11016, "##특": 11017, "al": 11018, "낭비": 11019, "흐지부지": 11020, "김사": 11021, "daily": 11022, "##당": 11023, "만남": 11024, "##버렸": 11025, "서장": 11026, "퍼진": 11027, "삼성물산": 11028, "역효과": 11029, "활로": 11030, "##바르": 11031, "절로": 11032, "참가": 11033, "라운": 11034, "대행사": 11035, "원래": 11036, "만기일": 11037, "받아들": 11038, "Id": 11039, "府": 11040, "동그랗": 11041, "비엔날레": 11042, "현충": 11043, "양파": 11044, "공천": 11045, "재래": 11046, "노량": 11047, "경미": 11048, "승용차": 11049, "##ae": 11050, "상병": 11051, "차창": 11052, "대명사": 11053, "일변": 11054, "돈": 11055, "철거": 11056, "방망이": 11057, "신바람": 11058, "종과": 11059, "650": 11060, "강민": 11061, "토머스": 11062, "독립운동": 11063, "부른다": 11064, "##쑤": 11065, "떨어지": 11066, "시켰": 11067, "밀수": 11068, "島": 11069, "마세요": 11070, "구별": 11071, "옌": 11072, "##축제": 11073, "야권": 11074, "##쥐": 11075, "##아리움": 11076, "거친다": 11077, "대학원생": 11078, "이뤄질": 11079, "소비량": 11080, "²": 11081, "직장": 11082, "##변이": 11083, "몇": 11084, "##난로": 11085, "고점": 11086, "##apan": 11087, "복무": 11088, "비주류": 11089, "씌": 11090, "법치주의": 11091, "타": 11092, "터뜨리": 11093, "실격": 11094, "153": 11095, "형용사": 11096, "판다": 11097, "비스듬": 11098, "에티오피아": 11099, "월남": 11100, "검열": 11101, "왠": 11102, "des": 11103, "청순": 11104, "##명령": 11105, "일리": 11106, "##수산부": 11107, "명함": 11108, "싶": 11109, "냄비": 11110, "브": 11111, "랏": 11112, "아스널": 11113, "어원": 11114, "당초": 11115, "한번": 11116, "Techn": 11117, "보호자": 11118, "알릴": 11119, "문화전": 11120, "공여": 11121, "##ri": 11122, "##마르": 11123, "화근": 11124, "봉제": 11125, "##⠀⠀": 11126, "##덜란드": 11127, "쿠롱": 11128, "굵직": 11129, "##합니다": 11130, "가져왔": 11131, "신수": 11132, "대성공": 11133, "EG": 11134, "컨설": 11135, "카인": 11136, "적응력": 11137, "다른": 11138, "경기": 11139, "##료품": 11140, "킬로": 11141, "도리어": 11142, "홍진": 11143, "an": 11144, "설문": 11145, "모닥불": 11146, "정육": 11147, "스트리트": 11148, "한복": 11149, "코노": 11150, "수포": 11151, "##지어": 11152, "##Ⅲ": 11153, "고법": 11154, "귀담": 11155, "눈치": 11156, "잉": 11157, "김경문": 11158, "이바지": 11159, "취록": 11160, "기현": 11161, "배고": 11162, "무너져": 11163, "가져온다": 11164, "대행": 11165, "까마귀": 11166, "궁녀": 11167, "칼국수": 11168, "병무": 11169, "성희롱": 11170, "수십억": 11171, "임진": 11172, "수수료": 11173, "오줌": 11174, "##뽀": 11175, "소형차": 11176, "재정": 11177, "소치": 11178, "입당": 11179, "알록달록": 11180, "레바논": 11181, "의정": 11182, "##젝": 11183, "어부": 11184, "風": 11185, "water": 11186, "##7": 11187, "233": 11188, "##꽁": 11189, "일침": 11190, "선교": 11191, "체인지업": 11192, "방사성": 11193, "신경질": 11194, "##윙": 11195, "주거비": 11196, "미워하": 11197, "몸매": 11198, "전유물": 11199, "부들": 11200, "꾸짖": 11201, "##ign": 11202, "머뭇거리": 11203, "##스코": 11204, "안종": 11205, "##레기": 11206, "웨어": 11207, "목전": 11208, "에이전": 11209, "자태": 11210, "##노선": 11211, "양사": 11212, "다라": 11213, "구스": 11214, "자분": 11215, "투자자": 11216, "돌려서": 11217, "은연": 11218, "트림": 11219, "1": 11220, "##퍼트": 11221, "메세지": 11222, "퇴치": 11223, "남해안": 11224, "##어먹": 11225, "꼬치": 11226, "정조": 11227, "포근": 11228, "선뜻": 11229, "잔해": 11230, "영유권": 11231, "막걸리": 11232, "28": 11233, "러스": 11234, "올라온": 11235, "유지비": 11236, "리버풀": 11237, "참": 11238, "금오": 11239, "구조대": 11240, "##뚤": 11241, "고참": 11242, "##톱": 11243, "고리": 11244, "스러우": 11245, "코딩": 11246, "득표": 11247, "중앙선관위": 11248, "모자": 11249, "알려": 11250, "경청": 11251, "도라": 11252, "담회": 11253, "잠겨": 11254, "진수": 11255, "##위원": 11256, "쿠웨이트": 11257, "##젊": 11258, "아닌데": 11259, "야지": 11260, "##휴일": 11261, "되도록": 11262, "한발": 11263, "구현": 11264, "##씻": 11265, "명산": 11266, "복고": 11267, "힘주": 11268, "패티": 11269, "이방": 11270, "홍익": 11271, "척척": 11272, "돼서": 11273, "2007": 11274, "마이애미": 11275, "줄기세포": 11276, "보인다": 11277, "후보자": 11278, "극진": 11279, "녀석": 11280, "미쓰": 11281, "정인": 11282, "KB": 11283, "진열": 11284, "$": 11285, "익": 11286, "김천시": 11287, "##티티": 11288, "미얀": 11289, "권위주의": 11290, "기분": 11291, "Bu": 11292, "다루": 11293, "##짜기": 11294, "듀스": 11295, "발사체": 11296, "없앨": 11297, "메디컬": 11298, "흥덕": 11299, "UP": 11300, "##무시": 11301, "우즈": 11302, "확실": 11303, "돌봐": 11304, "대통령": 11305, "충남": 11306, "파열": 11307, "중흥": 11308, "유체": 11309, "##몫": 11310, "##유국": 11311, "연승": 11312, "∙": 11313, "추워": 11314, "판도": 11315, "사유지": 11316, "실린": 11317, "1964": 11318, "갈망": 11319, "오세훈": 11320, "##나무": 11321, "Bo": 11322, "컨설턴트": 11323, "설화": 11324, "person": 11325, "갖추": 11326, "어조": 11327, "도민": 11328, "곤혹": 11329, "음란물": 11330, "서운": 11331, "웅크": 11332, "강물": 11333, "거짓말": 11334, "헬멧": 11335, "난민": 11336, "범하": 11337, "성전": 11338, "반포": 11339, "근데": 11340, "유발": 11341, "##낙": 11342, "오호": 11343, "항공모함": 11344, "##베리아": 11345, "핀잔": 11346, "CEO": 11347, "현지": 11348, "31": 11349, "솟아오르": 11350, "도래": 11351, "ㅏ": 11352, "군데군데": 11353, "잠든": 11354, "수비진": 11355, "어렵사리": 11356, "이송": 11357, "내린": 11358, "릴": 11359, "희생자": 11360, "##덩이": 11361, "원주민": 11362, "많이": 11363, "심청": 11364, "숙": 11365, "제주도": 11366, "꿈속": 11367, "##AC": 11368, "##ed": 11369, "박종훈": 11370, "서열": 11371, "간다": 11372, "구위": 11373, "단가": 11374, "토박이": 11375, "##ization": 11376, "레오나르도": 11377, "기근": 11378, "답안": 11379, "빨치산": 11380, "내기": 11381, "내려온": 11382, "전담": 11383, "fr": 11384, "저탄소": 11385, "부대시설": 11386, "관제": 11387, "##진우": 11388, "##젖": 11389, "외신": 11390, "횡성": 11391, "흐느": 11392, "##벨트": 11393, "IFRS": 11394, "방책": 11395, "완성도": 11396, "발톱": 11397, "제너": 11398, "개성": 11399, "제르": 11400, "평준": 11401, "가벼": 11402, "오래": 11403, "잊어버": 11404, "인양": 11405, "어쨌": 11406, "보행자": 11407, "입양": 11408, "전언": 11409, "##에이": 11410, "포티": 11411, "192": 11412, "##지능": 11413, "헤겔": 11414, "다닐": 11415, "경영": 11416, "놈": 11417, "고군분투": 11418, "리프": 11419, "비기": 11420, "호명": 11421, "징계": 11422, "노역": 11423, "##미": 11424, "변호": 11425, "김덕": 11426, "스티븐": 11427, "양봉": 11428, "##팁": 11429, "that": 11430, "비평": 11431, "ne": 11432, "나사": 11433, "페라리": 11434, "시카": 11435, "늘릴": 11436, "추진": 11437, "##뚜": 11438, "인용": 11439, "##슬림": 11440, "트윈스": 11441, "후폭풍": 11442, "분위기": 11443, "추이": 11444, "본보기": 11445, "뜰": 11446, "인계": 11447, "##렛": 11448, "드러낸": 11449, "지적도": 11450, "할": 11451, "구만": 11452, "소외": 11453, "얼룩진": 11454, "따름": 11455, "私": 11456, "##ular": 11457, "天": 11458, "노릴": 11459, "##영": 11460, "##랜": 11461, "기조": 11462, "기력": 11463, "초등": 11464, "워크숍": 11465, "용산구": 11466, "##텨": 11467, "셜록": 11468, "##끌": 11469, "흡연자": 11470, "1899": 11471, "발달": 11472, "호통": 11473, "때려": 11474, "古": 11475, "이자": 11476, "당시": 11477, "갯벌": 11478, "##직": 11479, "러": 11480, "능숙": 11481, "##ank": 11482, "영남대": 11483, "혼": 11484, "##댔": 11485, "저작권": 11486, "95": 11487, "답답": 11488, "낌": 11489, "실장": 11490, "지니": 11491, "리바": 11492, "시리얼": 11493, "사망률": 11494, "머지": 11495, "한시": 11496, "가혹": 11497, "건의": 11498, "원산": 11499, "形": 11500, "힘줄": 11501, "##젠테이션": 11502, "미술품": 11503, "여성": 11504, "##팅": 11505, "중령": 11506, "초연": 11507, "신용": 11508, "무위": 11509, "쑥": 11510, "Life": 11511, "데미": 11512, "완수": 11513, "각급": 11514, "조합장": 11515, "애썼": 11516, "##워즈": 11517, "##닛": 11518, "견고": 11519, "베니스": 11520, "非": 11521, "게으": 11522, "실록": 11523, "당일": 11524, "유골": 11525, "광둥": 11526, "의사소통": 11527, "방대": 11528, "준비": 11529, "입항": 11530, "연락": 11531, "헤치": 11532, "디펜": 11533, "자연히": 11534, "라마": 11535, "공산": 11536, "濟": 11537, "깨달음": 11538, "##국수": 11539, "급선": 11540, "황룡": 11541, "살렸": 11542, "##겹살": 11543, "쌀값": 11544, "##때로": 11545, "천정": 11546, "하얗": 11547, "SUV": 11548, "##엘": 11549, "봉기": 11550, "##업자": 11551, "바오로": 11552, "二": 11553, "원상": 11554, "요금": 11555, "지동원": 11556, "19": 11557, "지주": 11558, "울상": 11559, "토양": 11560, "36": 11561, "묘소": 11562, "각계": 11563, "침공": 11564, "##태프": 11565, "기체": 11566, "꼬리": 11567, "일제": 11568, "층": 11569, "온종일": 11570, "적시": 11571, "마이크로": 11572, "비철": 11573, "오오": 11574, "함장": 11575, "두": 11576, "신파": 11577, "##웨이트": 11578, "제일제당": 11579, "멋진": 11580, "Con": 11581, "2006": 11582, "행": 11583, "그릇": 11584, "독백": 11585, "집결": 11586, "4600": 11587, "보여서": 11588, "정신병": 11589, "양형": 11590, "이성계": 11591, "재무": 11592, "이삭": 11593, "멜라": 11594, "選": 11595, "##erc": 11596, "##ino": 11597, "드레싱": 11598, "벙커": 11599, "룸": 11600, "뒷산": 11601, "스승": 11602, "전해졌": 11603, "당": 11604, "괜한": 11605, "했어요": 11606, "전편": 11607, "내신": 11608, "헤이": 11609, "기왕": 11610, "꼬이": 11611, "녕": 11612, "고쳤": 11613, "접경": 11614, "모른": 11615, "유니온": 11616, "117": 11617, "교통": 11618, "Chris": 11619, "찹": 11620, "경남은행": 11621, "##옵": 11622, "시청자": 11623, "주류": 11624, "론스타": 11625, "플래카드": 11626, "나타났": 11627, "굴욕": 11628, "더블": 11629, "수비수": 11630, "##의지": 11631, "몸짓": 11632, "오토바이": 11633, "##팍": 11634, "신년": 11635, "거액": 11636, "다쳤": 11637, "승인": 11638, "급속히": 11639, "덤": 11640, "구청장": 11641, "2015": 11642, "내려간": 11643, "잡혀": 11644, "뻘": 11645, "기리": 11646, "양구": 11647, "낙천": 11648, "##굽": 11649, "##기에": 11650, "통쾌": 11651, "목표치": 11652, "시킨다는": 11653, "전국": 11654, "박순": 11655, "선대": 11656, "오갔": 11657, "Is": 11658, "청문": 11659, "다만": 11660, "레몬": 11661, "성경": 11662, "자괴감": 11663, "##chen": 11664, "720": 11665, "교단": 11666, "모터스": 11667, "철거민": 11668, "##섬": 11669, "부축": 11670, "여서": 11671, "사학": 11672, "수건": 11673, "추격": 11674, "블라디미르": 11675, "##미트": 11676, "박창": 11677, "##니지": 11678, "진화": 11679, "라이스": 11680, "콜드": 11681, "고추": 11682, "##업체": 11683, "도출": 11684, "이빨": 11685, "하버": 11686, "##문예": 11687, "##국장": 11688, "풀밭": 11689, "서성": 11690, "늘어난다": 11691, "가벼워": 11692, "헤": 11693, "도중": 11694, "누워": 11695, "공조": 11696, "##ara": 11697, "##마른": 11698, "한마디": 11699, "알갱이": 11700, "캡틴": 11701, "##루살렘": 11702, "과당": 11703, "지방분": 11704, "안티에이징": 11705, "식은땀": 11706, "바른": 11707, "실체": 11708, "##HS": 11709, "밸런스": 11710, "외로운": 11711, "KTB": 11712, "베르디": 11713, "조미": 11714, "입맞춤": 11715, "단독": 11716, "곁들이": 11717, "흠": 11718, "변천": 11719, "아라비아": 11720, "옥죄": 11721, "드러난": 11722, "릴레이": 11723, "내음": 11724, "향": 11725, "찾아보": 11726, "힌트": 11727, "질리": 11728, "RC": 11729, "소나무": 11730, "컬렉션": 11731, "마음": 11732, "맞아들": 11733, "240": 11734, "새겨": 11735, "이랜드": 11736, "힘쓰": 11737, "파격": 11738, "##듯": 11739, "레이": 11740, "물줄기": 11741, "끌어들여": 11742, "##통신": 11743, "정황": 11744, "要": 11745, "택배": 11746, "KT": 11747, "##조류": 11748, "토벌": 11749, "2018": 11750, "하이라이트": 11751, "##mun": 11752, "##uc": 11753, "##탑": 11754, "##u": 11755, "ARS": 11756, "리드": 11757, "Man": 11758, "내려다보": 11759, "조력자": 11760, "아하": 11761, "서두": 11762, "##으며": 11763, "173": 11764, "㎏": 11765, "빼놓": 11766, "폭언": 11767, "##그레": 11768, "곧잘": 11769, "성동": 11770, "인원": 11771, "호찌민": 11772, "축산물": 11773, "정책": 11774, "참치": 11775, "fe": 11776, "109": 11777, "##느질": 11778, "##이지": 11779, "등교": 11780, "##ration": 11781, "돌아볼": 11782, "노화": 11783, "##야마": 11784, "외국어": 11785, "룡": 11786, "후예": 11787, "몸값": 11788, "비니": 11789, "마지막": 11790, "##amp": 11791, "박민": 11792, "국유": 11793, "표방": 11794, "출석": 11795, "영의정": 11796, "줄어": 11797, "##hys": 11798, "百": 11799, "밀려나": 11800, "거창": 11801, "PM": 11802, "필적": 11803, "독해": 11804, "##벚": 11805, "새파": 11806, "##보이": 11807, "품성": 11808, "앞장섰": 11809, "드래": 11810, "최저임금": 11811, "중징계": 11812, "이병": 11813, "콜라보": 11814, "##38": 11815, "##ary": 11816, "사실주의": 11817, "하의": 11818, "성서": 11819, "히스테리": 11820, "고엽": 11821, "교내": 11822, "에메": 11823, "흉": 11824, "무색": 11825, "기울여야": 11826, "몰입": 11827, "워커힐": 11828, "싱싱": 11829, "##팬": 11830, "官": 11831, "때론": 11832, "##뵈": 11833, "##현": 11834, "##ra": 11835, "물러날": 11836, "##날드": 11837, "골칫": 11838, "##화질": 11839, "최강희": 11840, "##진": 11841, "아웃소싱": 11842, "圖": 11843, "침해": 11844, "감사관": 11845, "혜안": 11846, "##리시": 11847, "OP": 11848, "각료": 11849, "선장": 11850, "##소닉": 11851, "보로": 11852, "출자": 11853, "서프라이즈": 11854, "나미": 11855, "선대위": 11856, "달마": 11857, "키위": 11858, "##둡": 11859, "리아": 11860, "당파": 11861, "수단": 11862, "##베이터": 11863, "둘러싸인": 11864, "coffee": 11865, "애쓰": 11866, "##ater": 11867, "계약금": 11868, "달라": 11869, "##2": 11870, "어업": 11871, "티": 11872, "튕": 11873, "멜로": 11874, "##선다": 11875, "본론": 11876, "템포": 11877, "내려오": 11878, "차마": 11879, "Dec": 11880, "신발": 11881, "퇴직자": 11882, "시찰": 11883, "드러냈": 11884, "떨어져": 11885, "아편": 11886, "본고": 11887, "면제": 11888, "##민턴": 11889, "중독": 11890, "항상": 11891, "연석회의": 11892, "##봅니다": 11893, "두피": 11894, "농가": 11895, "니혼": 11896, "평가": 11897, "김만": 11898, "말려": 11899, "낳": 11900, "피츠버그": 11901, "112": 11902, "재단": 11903, "바오": 11904, "새콤": 11905, "세안": 11906, "인허가": 11907, "쇠퇴": 11908, "신사업": 11909, "이스트": 11910, "청주": 11911, "난치": 11912, "건네": 11913, "늘려": 11914, "##렇": 11915, "롯데월드": 11916, "사정관": 11917, "미지수": 11918, "나뉘": 11919, "통합": 11920, "연천": 11921, "뼈대": 11922, "메르스": 11923, "아까운": 11924, "당장": 11925, "돌파구": 11926, "음료": 11927, "##28": 11928, "모여서": 11929, "FT": 11930, "알렉스": 11931, "목표": 11932, "임동": 11933, "럭키": 11934, "##하나": 11935, "사고방식": 11936, "흠뻑": 11937, "맘대로": 11938, "말투": 11939, "고파": 11940, "목조": 11941, "산호": 11942, "알파인": 11943, "방전": 11944, "양승태": 11945, "노조": 11946, "팻": 11947, "혈세": 11948, "방한": 11949, "그림책": 11950, "처용": 11951, "일세": 11952, "교황": 11953, "픔": 11954, "257": 11955, "##래": 11956, "무산": 11957, "현대식": 11958, "##가죽": 11959, "단다": 11960, "발생": 11961, "정약": 11962, "외우": 11963, "너도": 11964, "정령": 11965, "국밥": 11966, "證": 11967, "장래": 11968, "따르": 11969, "배우자": 11970, "카운터": 11971, "24": 11972, "얼": 11973, "생산": 11974, "합작": 11975, "아이스크림": 11976, "심도": 11977, "달랑": 11978, "중순": 11979, "유재": 11980, "신약": 11981, "예천": 11982, "병무청": 11983, "열악": 11984, "적중": 11985, "후회": 11986, "이정희": 11987, "##ities": 11988, "한남": 11989, "앞바다": 11990, "모차르트": 11991, "골드": 11992, "VIP": 11993, "로프": 11994, "##숙고": 11995, "##PR": 11996, "상호": 11997, "##저가": 11998, "측면": 11999, "대구경북": 12000, "절전": 12001, "##로리": 12002, "고증": 12003, "##솥": 12004, "고종": 12005, "##관리본부": 12006, "정확히": 12007, "1916": 12008, "개봉": 12009, "발리": 12010, "우산": 12011, "관해": 12012, "펜": 12013, "변모": 12014, "##에이징": 12015, "시험대": 12016, "재촉": 12017, "휴스턴": 12018, "여기저기": 12019, "John": 12020, "멀": 12021, "호도": 12022, "쇼핑몰": 12023, "두어": 12024, "약초": 12025, "영향력": 12026, "자이언츠": 12027, "반미": 12028, "시킬": 12029, "베이징": 12030, "순천시": 12031, "쭤": 12032, "계류": 12033, "大": 12034, "오프라인": 12035, "접어": 12036, "급작": 12037, "성난": 12038, "황석": 12039, "다녀갔": 12040, "이글": 12041, "CI": 12042, "천장": 12043, "정도": 12044, "##모습": 12045, "##핸": 12046, "차가운": 12047, "기뻐했": 12048, "Technology": 12049, "독재자": 12050, "현미": 12051, "아랑": 12052, "체육회": 12053, "핑": 12054, "어려울": 12055, "##자리": 12056, "앨범": 12057, "파이": 12058, "듬": 12059, "##프라노": 12060, "필기": 12061, "##려고": 12062, "썰물": 12063, "크": 12064, "##꿍": 12065, "메이드": 12066, "방류": 12067, "##피자": 12068, "러브": 12069, "중식": 12070, "##넌스": 12071, "수돗물": 12072, "##턴": 12073, "비타": 12074, "암반": 12075, "편파": 12076, "오케": 12077, "도미": 12078, "라오": 12079, "준다는": 12080, "전일": 12081, "적합": 12082, "주문": 12083, "알펜시아": 12084, "헨리": 12085, "국과": 12086, "123": 12087, "세탁": 12088, "박람": 12089, "헬": 12090, "투게": 12091, "안무": 12092, "긋": 12093, "무가": 12094, "56": 12095, "알려져": 12096, "신재": 12097, "채소": 12098, "지레": 12099, "Theory": 12100, "##루스": 12101, "177": 12102, "국방": 12103, "쥐": 12104, "##일체": 12105, "소음": 12106, "##베트": 12107, "냄새": 12108, "여섯째": 12109, "심할": 12110, "올": 12111, "관습": 12112, "로이터": 12113, "파우": 12114, "마마": 12115, "굴러가": 12116, "답한": 12117, "##봐도": 12118, "##9": 12119, "##멈": 12120, "판타지": 12121, "키울": 12122, "bet": 12123, "혼다": 12124, "내뱉": 12125, "수재": 12126, "오두막": 12127, "몬스터": 12128, "박계": 12129, "가로등": 12130, "##작전": 12131, "논설위원": 12132, "사령탑": 12133, "예체능": 12134, "동네": 12135, "본전": 12136, "만인": 12137, "공부": 12138, "##요": 12139, "교향악단": 12140, "스키장": 12141, "환희": 12142, "레인": 12143, "위해선": 12144, "겁나": 12145, "당나라": 12146, "##동무": 12147, "험한": 12148, "286": 12149, "인도인": 12150, "배제": 12151, "##궐": 12152, "신선도": 12153, "놀랬": 12154, "우도": 12155, "장서": 12156, "##80": 12157, "열쇠": 12158, "책무": 12159, "소장": 12160, "##엘라": 12161, "건너": 12162, "유지": 12163, "엑소": 12164, "##친": 12165, "애국가": 12166, "논어": 12167, "김미": 12168, "충주": 12169, "자카": 12170, "엄청": 12171, "##포츠": 12172, "##갠": 12173, "유치원": 12174, "Don": 12175, "신상": 12176, "##타이": 12177, "평택시": 12178, "##댁": 12179, "신호": 12180, "과반수": 12181, "들녘": 12182, "화질": 12183, "펀드": 12184, "하객": 12185, "김시": 12186, "성명서": 12187, "##연히": 12188, "지금": 12189, "##성장": 12190, "리그": 12191, "기고": 12192, "잇달": 12193, "줄기차": 12194, "어야": 12195, "명인": 12196, "##바오": 12197, "집요": 12198, "매매": 12199, "수험": 12200, "싼": 12201, "##81": 12202, "추리": 12203, "음반": 12204, "비지": 12205, "간첩": 12206, "합병": 12207, "사회": 12208, "일상": 12209, "류현진": 12210, "##프트": 12211, "Sc": 12212, "형용": 12213, "##Ⅱ": 12214, "부마": 12215, "떨어뜨렸": 12216, "홍수": 12217, "##례문": 12218, "무용단": 12219, "난다고": 12220, "개입": 12221, "번역": 12222, "##갱이": 12223, "프로야구": 12224, "감축": 12225, "재팬": 12226, "복역": 12227, "미혼모": 12228, "후작": 12229, "빠른": 12230, "입찰": 12231, "영장": 12232, "혁명가": 12233, "##부": 12234, "입주민": 12235, "뽑혔": 12236, "뒤진": 12237, "성공회": 12238, "받아들여": 12239, "글쎄요": 12240, "##브라": 12241, "＞": 12242, "두부": 12243, "발송": 12244, "대한항공": 12245, "얇": 12246, "본질": 12247, "특정인": 12248, "애널리스트": 12249, "##49": 12250, "##땀": 12251, "기본": 12252, "##PA": 12253, "미드필더": 12254, "체인지": 12255, "모친": 12256, "김범": 12257, "분뇨": 12258, "여단": 12259, "세이": 12260, "농작물": 12261, "움직이": 12262, "##irl": 12263, "북돋": 12264, "유모": 12265, "해부학": 12266, "비만": 12267, "전속": 12268, "피부": 12269, "##얕": 12270, "울부짖": 12271, "수하": 12272, "##떡": 12273, "표결": 12274, "천주교": 12275, "유임": 12276, "병세": 12277, "진작": 12278, "스케이팅": 12279, "런": 12280, "리서치": 12281, "화물": 12282, "낸시": 12283, "공략": 12284, "수록": 12285, "장남": 12286, "##바지": 12287, "여의도": 12288, "##자원": 12289, "형세": 12290, "웃긴": 12291, "아니요": 12292, "중원": 12293, "44": 12294, "옵티": 12295, "도미니": 12296, "국": 12297, "별다른": 12298, "경계": 12299, "꾸몄": 12300, "1930": 12301, "벌였": 12302, "##구": 12303, "##aw": 12304, "파이낸셜": 12305, "P": 12306, "끝자락": 12307, "설명": 12308, "##13": 12309, "나타낸다": 12310, "##누리": 12311, "제게": 12312, "적힌": 12313, "마리": 12314, "다녀왔": 12315, "장점": 12316, "규격": 12317, "부귀": 12318, "Pe": 12319, "##노총": 12320, "리메이크": 12321, "앗": 12322, "과열": 12323, "660": 12324, "차세대": 12325, "조광": 12326, "공복": 12327, "빨라졌": 12328, "안심": 12329, "작년": 12330, "진에어": 12331, "구겨": 12332, "심상": 12333, "고층": 12334, "통치": 12335, "끌려가": 12336, "잉크": 12337, "근간": 12338, "정한": 12339, "강현": 12340, "분류": 12341, "양": 12342, "만을": 12343, "동행": 12344, "법대": 12345, "ㅠ": 12346, "가세": 12347, "드레": 12348, "중소형": 12349, "마을금고": 12350, "수수": 12351, "기습": 12352, "KDI": 12353, "일주일": 12354, "스테이크": 12355, "同": 12356, "단순히": 12357, "##픽": 12358, "부도덕": 12359, "대륙": 12360, "알려준": 12361, "직속": 12362, "DM": 12363, "##믿": 12364, "정권": 12365, "양해": 12366, "구나": 12367, "개개인": 12368, "레이저": 12369, "의료비": 12370, "늦춰": 12371, "널": 12372, "환전": 12373, "옆": 12374, "과천시": 12375, "팝콘": 12376, "쭉쭉": 12377, "CA": 12378, "##널": 12379, "마늘": 12380, "해임": 12381, "내려갈": 12382, "장화": 12383, "Wil": 12384, "유업": 12385, "골프클럽": 12386, "캐리어": 12387, "오스만": 12388, "줄리": 12389, "목포시": 12390, "디딤": 12391, "전자파": 12392, "인터페이스": 12393, "레전": 12394, "관할": 12395, "##오피스": 12396, "극찬": 12397, "장비": 12398, "NH": 12399, "잉어": 12400, "II": 12401, "상무부": 12402, "방비": 12403, "디트로이트": 12404, "야채": 12405, "사양": 12406, "달려오": 12407, "색상": 12408, "이곳저곳": 12409, "는다고": 12410, "되찾": 12411, "발언": 12412, "서사시": 12413, "반열": 12414, "##어들": 12415, "자매": 12416, "도로": 12417, "오장": 12418, "안전성": 12419, "쫓아": 12420, "취임사": 12421, "명창": 12422, "IN": 12423, "기묘": 12424, "학생회": 12425, "해밀": 12426, "달할": 12427, "오일": 12428, "속담": 12429, "히딩크": 12430, "출마": 12431, "보조": 12432, "Me": 12433, "빼앗기": 12434, "##맑": 12435, "볼까요": 12436, "배출권": 12437, "침상": 12438, "##슴": 12439, "셔틀버스": 12440, "교부": 12441, "민가": 12442, "링크": 12443, "몸집": 12444, "기원전": 12445, "##스토크": 12446, "시오": 12447, "##소스": 12448, "석탑": 12449, "##너지": 12450, "따라서": 12451, "지선": 12452, "방지법": 12453, "반죽": 12454, "렙": 12455, "데이비스": 12456, "거려": 12457, "##트니": 12458, "##린다는": 12459, "마인드": 12460, "발신": 12461, "이수": 12462, "다이렉트": 12463, "app": 12464, "돌린다": 12465, "##상의": 12466, "##반": 12467, "순": 12468, "##롱": 12469, "선율": 12470, "##꽉": 12471, "DC": 12472, "최윤": 12473, "겐": 12474, "##노동": 12475, "##까요": 12476, "과소": 12477, "미사일": 12478, "펌": 12479, "##버니": 12480, "제후": 12481, "##AP": 12482, "교통안전": 12483, "장영": 12484, "천안": 12485, "전모": 12486, "적립금": 12487, "회합": 12488, "정교": 12489, "##절기": 12490, "다룬다": 12491, "지켜야": 12492, "집안일": 12493, "축구장": 12494, "전근대": 12495, "이통": 12496, "중동": 12497, "찌꺼기": 12498, "평소": 12499, "##너스": 12500, "김영삼": 12501, "業": 12502, "경험": 12503, "157": 12504, "파라다이스": 12505, "2023": 12506, "銀": 12507, "235": 12508, "잎사귀": 12509, "배트": 12510, "시우": 12511, "환매": 12512, "헬로": 12513, "제공": 12514, "이왕": 12515, "치료제": 12516, "아름다움": 12517, "김상곤": 12518, "박신": 12519, "1985": 12520, "University": 12521, "술탄": 12522, "자존심": 12523, "떠난": 12524, "독일": 12525, "농사일": 12526, "##그룹": 12527, "가만히": 12528, "일흔": 12529, "배격": 12530, "궁정": 12531, "육안": 12532, "스러운": 12533, "살펴": 12534, "차갑": 12535, "개발비": 12536, "스케": 12537, "富": 12538, "##랑스": 12539, "have": 12540, "가져온": 12541, "봤": 12542, "역점": 12543, "접수": 12544, ".": 12545, "담대": 12546, "방법": 12547, "사상": 12548, "우스꽝": 12549, "고열": 12550, "노태우": 12551, "어려워": 12552, "요컨대": 12553, "페인": 12554, "슬라이": 12555, "관광지": 12556, "객석": 12557, "外": 12558, "06": 12559, "언": 12560, "막히": 12561, "##욱": 12562, "부딪쳤": 12563, "##클": 12564, "정철": 12565, "1588": 12566, "삼진": 12567, "통관": 12568, "니콜": 12569, "휴식": 12570, "개헌안": 12571, "에로": 12572, "상무위원": 12573, "파헤쳐": 12574, "투르크": 12575, "룬": 12576, "지요": 12577, "원양": 12578, "##사회": 12579, "착각": 12580, "교착": 12581, "##rop": 12582, "서태": 12583, "대학생": 12584, "걸프": 12585, "갔": 12586, "초창기": 12587, "감": 12588, "상반": 12589, "킴": 12590, "##루엔": 12591, "Journal": 12592, "부릴": 12593, "세월": 12594, "길들여": 12595, "네놈": 12596, "여우": 12597, "##네이": 12598, "북": 12599, "김명": 12600, "##렇게": 12601, "섣": 12602, "밀어붙": 12603, "태수": 12604, "EBS": 12605, "보육": 12606, "송년회": 12607, "일체": 12608, "개막": 12609, "무이자": 12610, "조르": 12611, "주성": 12612, "학당": 12613, "究": 12614, "셜": 12615, "안산시": 12616, "충분": 12617, "이끄": 12618, "혼인": 12619, "걸스": 12620, "적십자": 12621, "박성": 12622, "##공항": 12623, "손꼽힌다": 12624, "##격": 12625, "##을지도": 12626, "줄어든다": 12627, "박수": 12628, "빼빼": 12629, "레비": 12630, "이뤄지면": 12631, "##슈": 12632, "네거": 12633, "본지": 12634, "교외": 12635, "㎾": 12636, "당첨": 12637, "명상": 12638, "국정": 12639, "##늦": 12640, "우선시": 12641, "##т": 12642, "을지": 12643, "라스베이거스": 12644, "생크림": 12645, "보듬": 12646, "막혀": 12647, "지난주": 12648, "현주소": 12649, "Ar": 12650, "중학": 12651, "마스카라": 12652, "흡입": 12653, "예술단": 12654, "황인": 12655, "노프": 12656, "매료": 12657, "흥원": 12658, "부산시": 12659, "사르트르": 12660, "사별": 12661, "ㆍ도": 12662, "사육": 12663, "태국": 12664, "불거진": 12665, "화합": 12666, "기간": 12667, "효종": 12668, "등부": 12669, "죄의식": 12670, "1700": 12671, "억양": 12672, "매입": 12673, "##언스": 12674, "권고": 12675, "시계": 12676, "문학사": 12677, "##재해": 12678, "목사": 12679, "왜냐면": 12680, "공과": 12681, "선관위": 12682, "이건": 12683, "정할": 12684, "현직": 12685, "리라는": 12686, "팬클럽": 12687, "갑작스러운": 12688, "사이즈": 12689, "증류": 12690, "시내버스": 12691, "##늘": 12692, "떠나가": 12693, "비준": 12694, "##실험": 12695, "친위": 12696, "미세": 12697, "해묵": 12698, "초반": 12699, "##플러": 12700, "하와이": 12701, "연료": 12702, "간사인": 12703, "기약": 12704, "의미": 12705, "성호": 12706, "디테일": 12707, "상금": 12708, "##공주": 12709, "스릴러": 12710, "와도": 12711, "역풍": 12712, "개각": 12713, "이랬": 12714, "상이": 12715, "##오리": 12716, "모의고사": 12717, "코미디": 12718, "첨": 12719, "응대": 12720, "연맹": 12721, "때때로": 12722, "연료전지": 12723, "1951": 12724, "걸음마": 12725, "써요": 12726, "시국": 12727, "자석": 12728, "일동": 12729, "##니어": 12730, "공터": 12731, "달리": 12732, "리얼": 12733, "田": 12734, "가수": 12735, "회의": 12736, "김혜": 12737, "차": 12738, "낙하산": 12739, "요": 12740, "맹자": 12741, "잭": 12742, "뜬다": 12743, "기념사업": 12744, "알코올": 12745, "블랙리스트": 12746, "##브스": 12747, "배수": 12748, "KCC": 12749, "생각난다": 12750, "들린다": 12751, "부장": 12752, "기본기": 12753, "창덕": 12754, "대남": 12755, "올인원": 12756, "피보험자": 12757, "##스로": 12758, "스파이더": 12759, "헤아리": 12760, "##어머니": 12761, "##삽": 12762, "점령": 12763, "##거진": 12764, "다운로드": 12765, "빠져들": 12766, "해병대": 12767, "ab": 12768, "##플레이": 12769, "푸념": 12770, "진사": 12771, "역행": 12772, "강도": 12773, "핸드백": 12774, "##참": 12775, "투혼": 12776, "꼽힌다": 12777, "연예계": 12778, "질투": 12779, "눌려": 12780, "바이어": 12781, "그랑": 12782, "사시": 12783, "소포": 12784, "진흥": 12785, "비웠": 12786, "증오": 12787, "##런치": 12788, "##넷": 12789, "물티슈": 12790, "치러질": 12791, "객": 12792, "감동": 12793, "옷장": 12794, "지구": 12795, "##러드": 12796, "신고": 12797, "##구름": 12798, "역전": 12799, "##찰": 12800, "대성": 12801, "##코니": 12802, "적격": 12803, "통산": 12804, "가신": 12805, "감미": 12806, "꼽혔": 12807, "사또": 12808, "五": 12809, "##킬": 12810, "온전히": 12811, "신하": 12812, "떨구": 12813, "떠오르": 12814, "trans": 12815, "등산객": 12816, "수원": 12817, "전갈": 12818, "광화문": 12819, "본체": 12820, "현악": 12821, "##뛰기": 12822, "살림살이": 12823, "행시": 12824, "##왈": 12825, "관전": 12826, "입맛": 12827, "똘똘": 12828, "커뮤니케이션": 12829, "엠마": 12830, "##머스": 12831, "닿": 12832, "물러난": 12833, "허상": 12834, "정겨운": 12835, "The": 12836, "동승": 12837, "張": 12838, "카자흐": 12839, "방해": 12840, "브랜": 12841, "피한": 12842, "빅토": 12843, "발짝": 12844, "지은이": 12845, "산천": 12846, "##가치": 12847, "정례": 12848, "엑스포": 12849, "에이즈": 12850, "툴": 12851, "##칸": 12852, "전진": 12853, "알맹이": 12854, "##낼": 12855, "96": 12856, "서머": 12857, "체감": 12858, "김태희": 12859, "농경": 12860, "##뻑": 12861, "석탄": 12862, "지켜봐": 12863, "실습": 12864, "##데미": 12865, "행보": 12866, "영산강": 12867, "초상화": 12868, "답했": 12869, "향료": 12870, "위나라": 12871, "냇": 12872, "총장": 12873, "일부분": 12874, "자양": 12875, "합니다": 12876, "삼위": 12877, "천체": 12878, "자궁": 12879, "토의": 12880, "간간이": 12881, "또렷": 12882, "논문": 12883, "집무실": 12884, "##타자": 12885, "##sch": 12886, "남인": 12887, "SF": 12888, "광주시": 12889, "준": 12890, "남중국해": 12891, "와이드": 12892, "승점": 12893, "전량": 12894, "결백": 12895, "선지자": 12896, "외연": 12897, "곱": 12898, "본분": 12899, "신장": 12900, "시멘트": 12901, "붕괴": 12902, "아닌": 12903, "스쳐": 12904, "##정동": 12905, "달아올랐": 12906, "곰": 12907, "##늄": 12908, "조세": 12909, "투약": 12910, "못지": 12911, "Air": 12912, "특산품": 12913, "##뮤": 12914, "##절": 12915, "농어촌": 12916, "##젤레스": 12917, "신현": 12918, "합정": 12919, "고질": 12920, "아이슬란드": 12921, "회사원": 12922, "나경": 12923, "사당": 12924, "고성": 12925, "씩": 12926, "##첼": 12927, "장병": 12928, "한국군": 12929, "풀타임": 12930, "나팔": 12931, "키친": 12932, "던져": 12933, "##러졌": 12934, "최치": 12935, "전년": 12936, "정해진": 12937, "묶음": 12938, "낱말": 12939, "##68": 12940, "정확도": 12941, "전역": 12942, "흥": 12943, "앞": 12944, "받": 12945, "휴지": 12946, "잔디": 12947, "연호": 12948, "대검": 12949, "제치": 12950, "SPC": 12951, "차액": 12952, "아울렛": 12953, "기를": 12954, "닥치": 12955, "스러워": 12956, "마이": 12957, "##꽂": 12958, "보리": 12959, "본의": 12960, "어느새": 12961, "녹색": 12962, "잘난": 12963, "평촌": 12964, "고어": 12965, "상상력": 12966, "이듬해": 12967, "그림": 12968, "##곱": 12969, "블랙박스": 12970, "직진": 12971, "솔로": 12972, "##버리지": 12973, "성악가": 12974, "탈세": 12975, "체크카드": 12976, "간혹": 12977, "바우처": 12978, "스카우트": 12979, "제네시스": 12980, "작곡": 12981, "김인": 12982, "나태": 12983, "인증서": 12984, "금광": 12985, "아리스": 12986, "스콜": 12987, "생각나": 12988, "도비": 12989, "즌": 12990, "I": 12991, "헛": 12992, "용산": 12993, "우승": 12994, "쓰이": 12995, "##짚": 12996, "들으": 12997, "잡화": 12998, "부설": 12999, "야쿠르트": 13000, "시기상조": 13001, "##쉴": 13002, "인근": 13003, "프렌즈": 13004, "221": 13005, "실력파": 13006, "내다": 13007, "채워져": 13008, "ABC": 13009, "##방식": 13010, "탄원서": 13011, "허리띠": 13012, "속성": 13013, "다빈": 13014, "멸": 13015, "도인": 13016, "##연구": 13017, "ㆍ박": 13018, "##도리": 13019, "참여": 13020, "시연": 13021, "정일": 13022, "동아리": 13023, "안전망": 13024, "띈다": 13025, "사병": 13026, "##던트": 13027, "게으른": 13028, "##합": 13029, "법질서": 13030, "취업자": 13031, "급사": 13032, "##카운": 13033, "지위": 13034, "박서": 13035, "김부겸": 13036, "입력": 13037, "U": 13038, "감면": 13039, "수난": 13040, "초인": 13041, "황새": 13042, "뽀로로": 13043, "##◇": 13044, "소홀히": 13045, "##붙이": 13046, "的": 13047, "경기장": 13048, "처참": 13049, "월마트": 13050, "서면": 13051, "인체": 13052, "서려": 13053, "밤샘": 13054, "해안": 13055, "피웠": 13056, "난징": 13057, "##캬": 13058, "장항": 13059, "경주": 13060, "파행": 13061, "살아오": 13062, "용": 13063, "헤아": 13064, "추신수": 13065, "복합": 13066, "회의소": 13067, "새내기": 13068, "##관리위원회": 13069, "노동": 13070, "제시": 13071, "일군": 13072, "151": 13073, "원활히": 13074, "교활": 13075, "##청": 13076, "감사": 13077, "에코": 13078, "##멤": 13079, "미스터": 13080, "유착": 13081, "논현동": 13082, "##os": 13083, "잣대": 13084, "st": 13085, "골대": 13086, "무더": 13087, "돌아가": 13088, "성수": 13089, "떨리": 13090, "430": 13091, "##메리카": 13092, "챙겼": 13093, "정갈": 13094, "##콰": 13095, "바탕": 13096, "칼라": 13097, "애틀랜타": 13098, "천연": 13099, "750": 13100, "사이": 13101, "##줄": 13102, "주기": 13103, "##인수": 13104, "설렘": 13105, "봇": 13106, "연탄": 13107, "契": 13108, "올려놓": 13109, "MIT": 13110, "서청원": 13111, "소품": 13112, "##컨": 13113, "강해": 13114, "공구": 13115, "아침": 13116, "주먹": 13117, "특전": 13118, "##orea": 13119, "수필": 13120, "애널": 13121, "고철": 13122, "그런데": 13123, "##먼드": 13124, "##폐": 13125, "##패드": 13126, "골동품": 13127, "선언": 13128, "건설사": 13129, "메리트": 13130, "패트": 13131, "참으": 13132, "역시": 13133, "코앞": 13134, "수심": 13135, "빈곤층": 13136, "유약": 13137, "실버": 13138, "예정지": 13139, "오메가": 13140, "괴로": 13141, "일까": 13142, "##껑": 13143, "##□": 13144, "##잃": 13145, "##학생": 13146, "##다녀": 13147, "넘쳐나": 13148, "한다는": 13149, "직사": 13150, "158": 13151, "절대로": 13152, "㈜": 13153, "관자": 13154, "그나마": 13155, "포워드": 13156, "추종": 13157, "무패": 13158, "들추": 13159, "인과": 13160, "체포영장": 13161, "##나비": 13162, "감시": 13163, "인생": 13164, "살충제": 13165, "원더": 13166, "단속": 13167, "쩜": 13168, "바랍니다": 13169, "나아졌": 13170, "모여들": 13171, "목욕": 13172, "유비쿼터스": 13173, "강관": 13174, "어뢰": 13175, "일지": 13176, "구워": 13177, "도무지": 13178, "초임": 13179, "탁월": 13180, "숙녀": 13181, "eat": 13182, "증축": 13183, "당당히": 13184, "로비": 13185, "늘린": 13186, "##프라": 13187, "장년층": 13188, "유통": 13189, "저널리즘": 13190, "##소연": 13191, "도록": 13192, "침": 13193, "뿜": 13194, "##콕": 13195, "##aus": 13196, "뭔지": 13197, "##태": 13198, "##좌석": 13199, "반일": 13200, "꼬박꼬박": 13201, "차명": 13202, "혹독": 13203, "리전": 13204, "어려워진다": 13205, "시온": 13206, "##도": 13207, "표현": 13208, "하우": 13209, "출입문": 13210, "아무": 13211, "물러서": 13212, "매주": 13213, "해동": 13214, "백악관": 13215, "전혀": 13216, "산삼": 13217, "백수": 13218, "마술": 13219, "##랴": 13220, "괴한": 13221, "남겼": 13222, "ML": 13223, "억류": 13224, "순찰": 13225, "호조": 13226, "##o": 13227, "노원구": 13228, "원": 13229, "LI": 13230, "결핵": 13231, "무장": 13232, "간청": 13233, "멀리": 13234, "트렌드": 13235, "근처": 13236, "대여": 13237, "눈부시": 13238, "러닝": 13239, "##erm": 13240, "##솔": 13241, "통폐합": 13242, "재화": 13243, "관아": 13244, "오리지": 13245, "누구": 13246, "분과": 13247, "138": 13248, "##케이크": 13249, "어젠": 13250, "##ton": 13251, "노선": 13252, "DB": 13253, "스테이지": 13254, "소방차": 13255, "##TRA": 13256, "꾸준": 13257, "건드": 13258, "달라져": 13259, "채집": 13260, "전부": 13261, "새만금": 13262, "불분": 13263, "상투": 13264, "끓이": 13265, "에다": 13266, "그때": 13267, "조금": 13268, "엔진": 13269, "젝": 13270, "##봉": 13271, "재고량": 13272, "뛰어났": 13273, "##걱": 13274, "##하면": 13275, "예물": 13276, "꺾이": 13277, "삼화": 13278, "알록": 13279, "국제통화기금": 13280, "근방": 13281, "올린다": 13282, "메신저": 13283, "홀대": 13284, "공산주의자": 13285, "두터운": 13286, "난생": 13287, "우발": 13288, "콤플렉스": 13289, "第": 13290, "난립": 13291, "덩달": 13292, "##보증기금": 13293, "뒷": 13294, "난국": 13295, "깡통": 13296, "고뇌": 13297, "척결": 13298, "유제품": 13299, "라지만": 13300, "밀": 13301, "분": 13302, "##국": 13303, "잠수함": 13304, "컬러": 13305, "수장": 13306, "창단": 13307, "St": 13308, "반영": 13309, "화물차": 13310, "정호": 13311, "달러": 13312, "전자레인지": 13313, "##43": 13314, "##카이": 13315, "분대": 13316, "부딪히": 13317, "면허증": 13318, "우거진": 13319, "엄중": 13320, "##아닌": 13321, "덴": 13322, "조작": 13323, "매콤": 13324, "악물": 13325, "던전": 13326, "임산부": 13327, "형": 13328, "Love": 13329, "대림": 13330, "im": 13331, "##맞": 13332, "달려들": 13333, "무섭": 13334, "청학": 13335, "##LA": 13336, "주방장": 13337, "사카": 13338, "메리": 13339, "소나기": 13340, "변증법": 13341, "표고버섯": 13342, "##26": 13343, "돌고래": 13344, "반반": 13345, "##방송": 13346, "理": 13347, "오릭스": 13348, "출하": 13349, "왓": 13350, "그려져": 13351, "imp": 13352, "兵": 13353, "##노소": 13354, "절충": 13355, "낱낱이": 13356, "앙리": 13357, "이와": 13358, "구정": 13359, "구주": 13360, "피자": 13361, "##짱": 13362, "크로스": 13363, "그간": 13364, "그치": 13365, "##지배": 13366, "큼": 13367, "이리저리": 13368, "요동치": 13369, "여생": 13370, "압구정": 13371, "”": 13372, "美": 13373, "뭉쳐": 13374, "인턴": 13375, "온스": 13376, "食": 13377, "황급히": 13378, "두툼": 13379, "색채": 13380, "##거린다": 13381, "China": 13382, "##정식": 13383, "武": 13384, "깜깜": 13385, "쓴다고": 13386, "##뱉": 13387, "유일": 13388, "경제학자": 13389, "유례": 13390, "한국일보": 13391, "공기업": 13392, "Ed": 13393, "역정": 13394, "##ys": 13395, "##RC": 13396, "영예": 13397, "움직인": 13398, "##ug": 13399, "스핀": 13400, "걸어온": 13401, "produc": 13402, "이승만": 13403, "기축": 13404, "겸직": 13405, "자취": 13406, "##ill": 13407, "등록금": 13408, "커져": 13409, "청탁": 13410, "낙후": 13411, "싸움": 13412, "립스틱": 13413, "줄지": 13414, "시장": 13415, "묶인": 13416, "터뜨린": 13417, "정전": 13418, "용돈": 13419, "공심": 13420, "Ph": 13421, "늘어진": 13422, "날아오": 13423, "세브": 13424, "未": 13425, "부산은행": 13426, "예정자": 13427, "카테": 13428, "원시": 13429, "이승철": 13430, "섹스": 13431, "니코틴": 13432, "방언": 13433, "서울특별": 13434, "우레": 13435, "피보험": 13436, "탱": 13437, "잤": 13438, "자아내": 13439, "XX": 13440, "##셸": 13441, "승천": 13442, "도입": 13443, "가려내": 13444, "기적": 13445, "연다고": 13446, "스티브": 13447, "그친다": 13448, "눅": 13449, "보건소": 13450, "처녀": 13451, "오랜만": 13452, "갑작스": 13453, "대내": 13454, "끌어들이": 13455, "##치우": 13456, "23": 13457, "대졸": 13458, "해진": 13459, "이뤄지고": 13460, "속하": 13461, "1938": 13462, "허준": 13463, "AC": 13464, "진": 13465, "신인": 13466, "드셔": 13467, "이모": 13468, "유가증권": 13469, "봤었": 13470, "연한": 13471, "##ph": 13472, "모래": 13473, "##두": 13474, "척도": 13475, "쓰임새": 13476, "유고": 13477, "YTN": 13478, "왜": 13479, "상응": 13480, "탄핵": 13481, "현자": 13482, "귀신": 13483, "번갈": 13484, "語": 13485, "##칵": 13486, "칭기즈칸": 13487, "포함": 13488, "영남": 13489, "소사": 13490, "산책": 13491, "이른": 13492, "지우": 13493, "혹시나": 13494, "조중": 13495, "방청": 13496, "젠": 13497, "정류": 13498, "65": 13499, "뒤흔들": 13500, "피닉스": 13501, "슬라": 13502, "##돕": 13503, "FC": 13504, "OS": 13505, "견지": 13506, "비서": 13507, "적당히": 13508, "백성": 13509, "담아낸": 13510, "중풍": 13511, "가계부": 13512, "밀양시": 13513, "간장": 13514, "청와": 13515, "##비치": 13516, "상큼": 13517, "연합뉴스": 13518, "마이어": 13519, "##깁니다": 13520, "우이": 13521, "토끼": 13522, "해수부": 13523, "NP": 13524, "프로모": 13525, "존슨": 13526, "잠정": 13527, "Fe": 13528, "자성": 13529, "90": 13530, "해남": 13531, "나이": 13532, "건강식": 13533, "경비": 13534, "불꽃": 13535, "Stud": 13536, "##장치": 13537, "우열": 13538, "교실": 13539, "혀": 13540, "약혼": 13541, "보세": 13542, "=": 13543, "등용": 13544, "Fri": 13545, "제조": 13546, "선적": 13547, "표상": 13548, "김문수": 13549, "한자": 13550, "한전": 13551, "떠서": 13552, "동시": 13553, "판서": 13554, "낮췄": 13555, "금": 13556, "노동계": 13557, "부동": 13558, "윤석민": 13559, "치를": 13560, "유목": 13561, "##ech": 13562, "부여받": 13563, "수십만": 13564, "오피스": 13565, "條": 13566, "월": 13567, "샤이니": 13568, "돈독": 13569, "가구": 13570, "##마킹": 13571, "주전자": 13572, "인공": 13573, "무사": 13574, "야구장": 13575, "인터넷": 13576, "##trol": 13577, "##뚜기": 13578, "확인서": 13579, "각색": 13580, "투철": 13581, "병원장": 13582, "떳떳": 13583, "유방암": 13584, "박연차": 13585, "헛소리": 13586, "평창": 13587, "선거인단": 13588, "##소년": 13589, "처한": 13590, "입": 13591, "냉기": 13592, "利": 13593, "카다피": 13594, "돌아": 13595, "앞날": 13596, "풀뿌리": 13597, "시중": 13598, "##경제": 13599, "기색": 13600, "##ive": 13601, "쿠르": 13602, "풍물": 13603, "##필드": 13604, "타미": 13605, "김철": 13606, "곤": 13607, "추위": 13608, "가재": 13609, "원했": 13610, "사령부": 13611, "새까": 13612, "다림": 13613, "##홀": 13614, "잔뜩": 13615, "흥행": 13616, "응모": 13617, "오해": 13618, "타이거즈": 13619, "개그콘서트": 13620, "에베": 13621, "어촌": 13622, "원단": 13623, "자신": 13624, "큰손": 13625, "스파르타": 13626, "당한": 13627, "##글리": 13628, "찬": 13629, "정비": 13630, "지극히": 13631, "홍합": 13632, "컬럼": 13633, "뻔뻔": 13634, "피지": 13635, "##kin": 13636, "산골": 13637, "유성구": 13638, "##잘것": 13639, "살림": 13640, "높이": 13641, "##수단": 13642, "볼거리": 13643, "아저씨": 13644, "겨루기": 13645, "숭실대": 13646, "세비": 13647, "##마자": 13648, "##젯": 13649, "씻": 13650, "##버린": 13651, "인격": 13652, "마도": 13653, "팩": 13654, "370": 13655, "겼": 13656, "배상": 13657, "##ass": 13658, "##쉐": 13659, "경보": 13660, "141": 13661, "유망": 13662, "최형": 13663, "스캔들": 13664, "바둑": 13665, "라기": 13666, "안부": 13667, "한국개발": 13668, "##촌동": 13669, "공신력": 13670, "KLPGA": 13671, "여행기": 13672, "지난달": 13673, "실권": 13674, "김치냉장고": 13675, "긍정": 13676, "조리": 13677, "##키스": 13678, "뭄": 13679, "슈팅": 13680, "무서워서": 13681, "어떡": 13682, "피렌체": 13683, "마케": 13684, "절상": 13685, "싸운": 13686, "광": 13687, "랩": 13688, "480": 13689, "더러": 13690, "##키퍼": 13691, "챌린": 13692, "투자액": 13693, "모양새": 13694, "##보": 13695, "놓인": 13696, "모호": 13697, "한승": 13698, "라스트": 13699, "훔친": 13700, "그란": 13701, "걔": 13702, "물결": 13703, "출판": 13704, "지원서": 13705, "메스": 13706, "##석": 13707, "콩고": 13708, "능통": 13709, "임종": 13710, "레버리지": 13711, "신영": 13712, "##쌤": 13713, "수명": 13714, "不": 13715, "윤동주": 13716, "원유철": 13717, "##OM": 13718, "겨울철": 13719, "제갈": 13720, "ㆍ김": 13721, "문득": 13722, "클레이": 13723, "태어나": 13724, "전폭": 13725, "해맞이": 13726, "바빴": 13727, "눌": 13728, "징조": 13729, "순박": 13730, "History": 13731, "##할": 13732, "웨딩": 13733, "•": 13734, "##슬러": 13735, "경기력": 13736, "머금": 13737, "산맥": 13738, "식물원": 13739, "혹여": 13740, "공존": 13741, "전념": 13742, "아니면": 13743, "페스티벌": 13744, "##규": 13745, "빅리그": 13746, "합헌": 13747, "관사": 13748, "예보": 13749, "##able": 13750, "조석": 13751, "여리": 13752, "해짐": 13753, "강직": 13754, "쏠쏠": 13755, "인천공항공사": 13756, "대구대": 13757, "아세요": 13758, "역습": 13759, "떠내려": 13760, "통칭": 13761, "더불": 13762, "엄두": 13763, "생강": 13764, "##버릴": 13765, "갇힌": 13766, "그램": 13767, "뜸": 13768, "케이블카": 13769, "줄였": 13770, "정규": 13771, "흘러갔": 13772, "발간": 13773, "실험실": 13774, "모조리": 13775, "눈": 13776, "당연히": 13777, "팬": 13778, "is": 13779, "더러워": 13780, "스트라이크": 13781, "퇴근": 13782, "알아주": 13783, "부럽": 13784, "전경련": 13785, "고분군": 13786, "##아찌": 13787, "##에이터": 13788, "도처": 13789, "세종문화회관": 13790, "##쁨": 13791, "빠져나갔": 13792, "##고생": 13793, "##FF": 13794, "올라서": 13795, "계셔": 13796, "##흙": 13797, "민선": 13798, "바쁘": 13799, "・": 13800, "슴": 13801, "하승": 13802, "태동": 13803, "##닷": 13804, "선호도": 13805, "드리블": 13806, "커피숍": 13807, "##식": 13808, "대답": 13809, "진지": 13810, "어젯밤": 13811, "코리아": 13812, "任": 13813, "서병수": 13814, "상태": 13815, "헬레": 13816, "##ight": 13817, "봉투": 13818, "##아슬": 13819, "완화": 13820, "실용": 13821, "퀸": 13822, "안과": 13823, "긴요": 13824, "두개골": 13825, "##만큼": 13826, "##코드": 13827, "너희": 13828, "나름": 13829, "만연": 13830, "통일성": 13831, "어학원": 13832, "고베": 13833, "대낮": 13834, "소명": 13835, "mg": 13836, "트럭": 13837, "아우구": 13838, "##me": 13839, "논술": 13840, "실속": 13841, "서양인": 13842, "##천동": 13843, "피츠": 13844, "통찰력": 13845, "유념": 13846, "계승": 13847, "갑니다": 13848, "그리운": 13849, "석": 13850, "집행": 13851, "마지못해": 13852, "클": 13853, "청중": 13854, "이창호": 13855, "그러다": 13856, "구석": 13857, "##wo": 13858, "초간": 13859, "껍데기": 13860, "친밀": 13861, "◇": 13862, "개헌": 13863, "##몽": 13864, "##퀘어": 13865, "##룻": 13866, "순한": 13867, "고즈": 13868, "##넣": 13869, "##상부": 13870, "##F": 13871, "구제역": 13872, "무실": 13873, "역삼동": 13874, "부질": 13875, "★": 13876, "이형": 13877, "아버님": 13878, "드려야": 13879, "깜박": 13880, "빌려": 13881, "독도": 13882, "건": 13883, "왕래": 13884, "##동력": 13885, "순정": 13886, "각오": 13887, "취임식": 13888, "##17": 13889, "눈가": 13890, "충당": 13891, "투정": 13892, "Che": 13893, "시킨다고": 13894, "포항": 13895, "관심": 13896, "철판": 13897, "온돌": 13898, "잊어버리": 13899, "줄거리": 13900, "고른": 13901, "##반구": 13902, "강림": 13903, "##pt": 13904, "죄인": 13905, "##랜드": 13906, "갈매기": 13907, "제법": 13908, "컴백": 13909, "기념일": 13910, "풍기": 13911, "의외": 13912, "의존": 13913, "콜레스테롤": 13914, "##캘": 13915, "교직": 13916, "원유": 13917, "##h": 13918, "누려": 13919, "##느니": 13920, "비굴": 13921, "##걸스": 13922, "이어졌": 13923, "난로": 13924, "서연": 13925, "세분": 13926, "김근": 13927, "모둠": 13928, "시베리아": 13929, "내키": 13930, "전염병": 13931, "지목": 13932, "발행": 13933, "Fr": 13934, "엄격": 13935, "##센": 13936, "최병": 13937, "받쳐": 13938, "PC": 13939, "임했": 13940, "두각": 13941, "원안": 13942, "이복": 13943, "퍼져": 13944, "치아": 13945, "730": 13946, "명예훼손": 13947, "잔다": 13948, "서른": 13949, "원료": 13950, "##urt": 13951, "브리핑": 13952, "콘": 13953, "춘추": 13954, "넘어간": 13955, "상품": 13956, "절박": 13957, "촉박": 13958, "솔": 13959, "평일": 13960, "##61": 13961, "고성군": 13962, "센서스": 13963, "균형발전": 13964, "놀리": 13965, "블룸버그": 13966, "온실": 13967, "난폭": 13968, "고약": 13969, "쿤": 13970, "나날": 13971, "##노위": 13972, "##ML": 13973, "상설": 13974, "토플": 13975, "##ate": 13976, "##수범": 13977, "줄리엣": 13978, "서부": 13979, "증산": 13980, "##방아": 13981, "뻣뻣": 13982, "아웃": 13983, "내몰": 13984, "At": 13985, "시야": 13986, "계모": 13987, "두드려": 13988, "운반": 13989, "인하": 13990, "##쳐야": 13991, "눈꽃": 13992, "花": 13993, "##iff": 13994, "##부터": 13995, "업로드": 13996, "##트라": 13997, "번져": 13998, "태세": 13999, "인멸": 14000, "알고리즘": 14001, "바이": 14002, "판권": 14003, "괴롭": 14004, "한족": 14005, "되게": 14006, "신랑": 14007, "도립": 14008, "자임": 14009, "유물": 14010, "주지사": 14011, "점거": 14012, "수치": 14013, "김종필": 14014, "상영관": 14015, "정은": 14016, "죄송": 14017, "##PG": 14018, "전적": 14019, "김여정": 14020, "허리케인": 14021, "연주자": 14022, "기상청": 14023, "맥": 14024, "##쓰기": 14025, "방불": 14026, "극명": 14027, "보디": 14028, "##IST": 14029, "바쳤": 14030, "하물며": 14031, "저질": 14032, "필지": 14033, "##즌": 14034, "현존": 14035, "참배": 14036, "나머지": 14037, "##테": 14038, "##컸": 14039, "IP": 14040, "화장실": 14041, "혼신": 14042, "행정소송": 14043, "불려": 14044, "뭉친": 14045, "관음": 14046, "제멋": 14047, "연구비": 14048, "강단": 14049, "카드": 14050, "흩": 14051, "법당": 14052, "NYT": 14053, "그려지": 14054, "선언문": 14055, "세력": 14056, "스웨덴": 14057, "활주": 14058, "사냥": 14059, "BW": 14060, "멜론": 14061, "##깥": 14062, "##이동": 14063, "명종": 14064, "호적": 14065, "##필더": 14066, "콰": 14067, "▼": 14068, "##지사": 14069, "실": 14070, "산둥": 14071, "광복절": 14072, "아토": 14073, "출고가": 14074, "삭막": 14075, "중용": 14076, "심술": 14077, "귓가": 14078, "비키니": 14079, "즉위": 14080, "일반인": 14081, "오늘날": 14082, "군비": 14083, "목격": 14084, "기품": 14085, "만세": 14086, "##머니": 14087, "양반": 14088, "성북구": 14089, "걸으면서": 14090, "국조": 14091, "흘려": 14092, "세이브": 14093, "야외": 14094, "도이치": 14095, "##ace": 14096, "아악": 14097, "과자": 14098, "단과": 14099, "##전입": 14100, "발단": 14101, "도이": 14102, "기댄": 14103, "☞": 14104, "충실": 14105, "서귀포": 14106, "##씩": 14107, "정동영": 14108, "전기차": 14109, "Organ": 14110, "총책": 14111, "또": 14112, "寺": 14113, "##세요": 14114, "잠재": 14115, "##뒹": 14116, "군포시": 14117, "붙여": 14118, "윤리": 14119, "dis": 14120, "7000": 14121, "어벤": 14122, "가압류": 14123, "##mer": 14124, "##붙": 14125, "희석": 14126, "모티": 14127, "피카": 14128, "깐": 14129, "산출": 14130, "난자": 14131, "이광재": 14132, "동양인": 14133, "비싼": 14134, "규약": 14135, "퉁": 14136, "UCC": 14137, "대표작": 14138, "마누라": 14139, "##갈": 14140, "카스트": 14141, "예산": 14142, "바를": 14143, "◆": 14144, "유급": 14145, "화": 14146, "as": 14147, "베스": 14148, "항산": 14149, "그니까": 14150, "알아내": 14151, "공영": 14152, "킷": 14153, "##ane": 14154, "황금": 14155, "환급금": 14156, "진짜": 14157, "##꼭지": 14158, "둥둥": 14159, "Service": 14160, "##긍": 14161, "계약직": 14162, "했었": 14163, "코엑스": 14164, "쪽지": 14165, "카트": 14166, "바트": 14167, "##다랗": 14168, "안대": 14169, "부끄러움": 14170, "##굵": 14171, "고행": 14172, "크리스티": 14173, "눈뜨": 14174, "유심히": 14175, "##af": 14176, "##깔": 14177, "발란": 14178, "생물학": 14179, "팸": 14180, "Rec": 14181, "##마리": 14182, "김일": 14183, "##췄": 14184, "아이슬": 14185, "사무엘": 14186, "시발": 14187, "##공단": 14188, "파일럿": 14189, "농촌": 14190, "##대": 14191, "산하": 14192, "레슨": 14193, "위용": 14194, "##장어": 14195, "지루": 14196, "강변": 14197, "쓰다듬": 14198, "알바": 14199, "제스": 14200, "박희": 14201, "루마니아": 14202, "##직원": 14203, "대장군": 14204, "주저": 14205, "##펠러": 14206, "진학률": 14207, "젊": 14208, "방지": 14209, "##ㅇ": 14210, "끝": 14211, "소프트웨어": 14212, "양재동": 14213, "중년": 14214, "책임감": 14215, "##탈": 14216, "한다든가": 14217, "황보": 14218, "명백히": 14219, "파이팅": 14220, "장애": 14221, "금감원": 14222, "급히": 14223, "想": 14224, "앵무새": 14225, "형벌": 14226, "파멸": 14227, "구타": 14228, "##y": 14229, "발성": 14230, "호황": 14231, "유격수": 14232, "경내": 14233, "아꼈": 14234, "상선": 14235, "옹기": 14236, "맏형": 14237, "##말라": 14238, "캔버스": 14239, "격파": 14240, "F": 14241, "파트너": 14242, "가디": 14243, "제고": 14244, "리우": 14245, "스프": 14246, "떨치": 14247, "봉사자": 14248, "들어갈": 14249, "블링": 14250, "##놀이": 14251, "스트": 14252, "창호": 14253, "##칠": 14254, "반세기": 14255, "해운업": 14256, "과목": 14257, "될지": 14258, "단거리": 14259, "##꿰": 14260, "번뇌": 14261, "주거": 14262, "성씨": 14263, "fl": 14264, "속삭이": 14265, "Sch": 14266, "멘": 14267, "마쓰": 14268, "상의": 14269, "##ous": 14270, "수차례": 14271, "In": 14272, "쿼": 14273, "축하": 14274, "꼈": 14275, "출사표": 14276, "William": 14277, "淸": 14278, "장학": 14279, "##ors": 14280, "뎌": 14281, "자의식": 14282, "칭송": 14283, "맞섰": 14284, "날아갈": 14285, "##ㅠ": 14286, "몹시": 14287, "미군정": 14288, "좋아할": 14289, "층위": 14290, "윙": 14291, "health": 14292, "##화": 14293, "전쟁": 14294, "다녀올": 14295, "감내": 14296, "트리": 14297, "군민": 14298, "직접": 14299, "시니어": 14300, "강요": 14301, "도시민": 14302, "휩쓸": 14303, "리스크": 14304, "건다": 14305, "윤활": 14306, "H": 14307, "재혼": 14308, "##진보": 14309, "삼성카드": 14310, "재조": 14311, "끼쳐": 14312, "##나리": 14313, "##봐": 14314, "마무리": 14315, "태조": 14316, "보였으나": 14317, "##족": 14318, "킬": 14319, "##정사": 14320, "영성": 14321, "꿔": 14322, "이윽고": 14323, "##박질": 14324, "face": 14325, "적극": 14326, "어쩌": 14327, "뵈": 14328, "상동": 14329, "133": 14330, "생겨난": 14331, "EPL": 14332, "관람객": 14333, "##일기": 14334, "생일": 14335, "시영": 14336, "심문": 14337, "몰카": 14338, "강추": 14339, "거린다": 14340, "##탠": 14341, "매끄러운": 14342, "혼자": 14343, "사업소": 14344, "배설": 14345, "보행": 14346, "언제": 14347, "강릉시": 14348, "##히드": 14349, "칠월": 14350, "망설이": 14351, "오빠": 14352, "소홀": 14353, "휠": 14354, "Par": 14355, "밀림": 14356, "TC": 14357, "나잇": 14358, "양회": 14359, "텐트": 14360, "사모": 14361, "이점": 14362, "품목": 14363, "깊숙이": 14364, "부닥": 14365, "스톤": 14366, "칠곡": 14367, "己": 14368, "입히": 14369, "##산성": 14370, "하숙": 14371, "쳐다보": 14372, "神": 14373, "의정부": 14374, "##불성": 14375, "경악": 14376, "방송국": 14377, "##세포": 14378, "캉": 14379, "정범": 14380, "헷갈": 14381, "떳": 14382, "아씨": 14383, "윌": 14384, "심오": 14385, "河": 14386, "##S": 14387, "편집": 14388, "혜성": 14389, "1970": 14390, "형체": 14391, "초이스": 14392, "5": 14393, "자궁경": 14394, "영양": 14395, "법정": 14396, "##에르": 14397, "##텝": 14398, "장하": 14399, "꽃잎": 14400, "선점": 14401, "관련자": 14402, "위시": 14403, "국민학교": 14404, "노승": 14405, "정아": 14406, "면할": 14407, "나폴레옹": 14408, "##축구협회": 14409, "막판": 14410, "추억": 14411, "##분": 14412, "형이상": 14413, "유니폼": 14414, "떨어져서": 14415, "본다": 14416, "헤어진": 14417, "오류": 14418, "##룰": 14419, "커지": 14420, "금기": 14421, "##ck": 14422, "형편없": 14423, "탔": 14424, "복": 14425, "해피": 14426, "이닝": 14427, "교육자": 14428, "새끼": 14429, "자니": 14430, "섭취": 14431, "연대기": 14432, "발전기": 14433, "체력": 14434, "##덫": 14435, "땅": 14436, "글라스": 14437, "##콧": 14438, "콜롬비아": 14439, "##샵": 14440, "아폴": 14441, "연패": 14442, "렸": 14443, "었었": 14444, "漢": 14445, "·": 14446, "세인트": 14447, "부러워": 14448, "냈": 14449, "##행정": 14450, "인지도": 14451, "군청": 14452, "##메": 14453, "늪": 14454, "어시스트": 14455, "용병": 14456, "과거": 14457, "캐서": 14458, "윤동": 14459, "조직": 14460, "현기증": 14461, "수지": 14462, "평상시": 14463, "부득이": 14464, "푸코": 14465, "##거렸": 14466, "팩토리": 14467, "호로": 14468, "최고위": 14469, "다닌다": 14470, "요트": 14471, "야생": 14472, "장가": 14473, "럭": 14474, "##관위": 14475, "사로잡": 14476, "창가": 14477, "권투": 14478, "##탤": 14479, "깅": 14480, "이뤄지기": 14481, "미투": 14482, "장미": 14483, "민요": 14484, "연금": 14485, "by": 14486, "흔드": 14487, "건배": 14488, "Instit": 14489, "천막": 14490, "외출": 14491, "섬유": 14492, "스웨": 14493, "위기": 14494, "무소": 14495, "들어간다": 14496, "누스": 14497, "됩": 14498, "해학": 14499, "색감": 14500, "비노": 14501, "캬": 14502, "경시대회": 14503, "주사위": 14504, "전세": 14505, "오리": 14506, "##호": 14507, "강진": 14508, "꺼리": 14509, "달라진다": 14510, "바나": 14511, "행복": 14512, "환경부": 14513, "자유당": 14514, "수탁": 14515, "##혜영": 14516, "수비": 14517, "시크릿": 14518, "상복": 14519, "베": 14520, "어떤가": 14521, "MO": 14522, "폐업": 14523, "엿": 14524, "설": 14525, "##찜": 14526, "꼴": 14527, "별도": 14528, "이라": 14529, "드레스": 14530, "잇단": 14531, "에선": 14532, "획득": 14533, "신학": 14534, "Br": 14535, "개국": 14536, "우르르": 14537, "굶주": 14538, "꺼냈": 14539, "표기": 14540, "』": 14541, "선물": 14542, "상실": 14543, "골몰": 14544, "선유": 14545, "연내": 14546, "민영화": 14547, "한데": 14548, "cit": 14549, "나뭇가지": 14550, "비율": 14551, "산문": 14552, "주호영": 14553, "미대": 14554, "정했": 14555, "아가": 14556, "헬스": 14557, "거트": 14558, "직구": 14559, "이규": 14560, "정기": 14561, "Business": 14562, "##elf": 14563, "무지": 14564, "끄떡": 14565, "위세": 14566, "식상": 14567, "방탄": 14568, "모여": 14569, "##찌감치": 14570, "발화": 14571, "시행착오": 14572, "만": 14573, "낮": 14574, "끼얹": 14575, "시판": 14576, "흡수": 14577, "월경": 14578, "머": 14579, "유서": 14580, "리사": 14581, "사원": 14582, "명부": 14583, "변경": 14584, "전인": 14585, "면사": 14586, "##타": 14587, "뒤따라": 14588, "게재": 14589, "##잿": 14590, "루카스": 14591, "칠레": 14592, "활기차": 14593, "프라이데이": 14594, "민원실": 14595, "##런스": 14596, "유네스코": 14597, "알렉": 14598, "##병": 14599, "기다리": 14600, "교향": 14601, "##들였": 14602, "총통": 14603, "재능기부": 14604, "손쉽": 14605, "서론": 14606, "발명": 14607, "시리": 14608, "이러": 14609, "2002": 14610, "시럽": 14611, "정가": 14612, "BT": 14613, "우방": 14614, "황성": 14615, "현수": 14616, "장동건": 14617, "##우스": 14618, "날아갔": 14619, "20": 14620, "My": 14621, "참석자": 14622, "##20": 14623, "실리콘": 14624, "부시": 14625, "##붙였": 14626, "다이아몬드": 14627, "펜스": 14628, "완료": 14629, "아쿠": 14630, "##봉사": 14631, "파드": 14632, "하": 14633, "##ER": 14634, "감방": 14635, "are": 14636, "광산구": 14637, "동탄": 14638, "파수": 14639, "보청기": 14640, "무너지": 14641, "##ese": 14642, "보내온": 14643, "나른": 14644, "부위원장": 14645, "##동강": 14646, "태그": 14647, "##뒤": 14648, "남동": 14649, "君": 14650, "##ine": 14651, "사계": 14652, "마요": 14653, "##티스": 14654, "##혁": 14655, "돈키호테": 14656, "초심": 14657, "##own": 14658, "증후군": 14659, "정약용": 14660, "리필": 14661, "골다공증": 14662, "육중": 14663, "##출산": 14664, "느티나무": 14665, "홈피": 14666, "원목": 14667, "종량": 14668, "##앰": 14669, "CPU": 14670, "대당": 14671, "##eak": 14672, "간판": 14673, "막대": 14674, "라인업": 14675, "비우": 14676, "69": 14677, "께서": 14678, "Ma": 14679, "닷": 14680, "물동량": 14681, "다구": 14682, "##56": 14683, "공정성": 14684, "자긍심": 14685, "차별": 14686, "줄줄이": 14687, "##스태프": 14688, "뛰어든": 14689, "유공": 14690, "차근": 14691, "소송": 14692, "전문지": 14693, "만난": 14694, "프랜": 14695, "연륜": 14696, "##공증": 14697, "##페": 14698, "덜미": 14699, "기선": 14700, "쩍": 14701, "##amil": 14702, "##ents": 14703, "火": 14704, "워터": 14705, "사활": 14706, "불법": 14707, "##저러": 14708, "바다": 14709, "선비": 14710, "서바이벌": 14711, "골치": 14712, "닮": 14713, "##ren": 14714, "케빈": 14715, "전임자": 14716, "추운": 14717, "##맥": 14718, "논리": 14719, "제품군": 14720, "배려": 14721, "블루투스": 14722, "판결": 14723, "교통량": 14724, "폭격기": 14725, "찰": 14726, "카누": 14727, "##my": 14728, "연중": 14729, "캄보": 14730, "싫어하": 14731, "내쫓": 14732, "##투수": 14733, "굵": 14734, "루이": 14735, "꾸준히": 14736, "윗": 14737, "센티": 14738, "김충": 14739, "유산": 14740, "아나운서": 14741, "주립": 14742, "지친": 14743, "천도": 14744, "떠돌이": 14745, "℃": 14746, "버린다": 14747, "쓴다는": 14748, "울릉": 14749, "밴드": 14750, "극": 14751, "탐": 14752, "종주": 14753, "이브": 14754, "목공": 14755, "도랑": 14756, "##카메라": 14757, "언니": 14758, "구인": 14759, "휘두": 14760, "효소": 14761, "오디": 14762, "접어들": 14763, "글램": 14764, "자가": 14765, "획일": 14766, "액": 14767, "##키지": 14768, "스폰서": 14769, "메달": 14770, "##시즘": 14771, "비중": 14772, "좋아": 14773, "멍청": 14774, "억대": 14775, "Bl": 14776, "求": 14777, "담양": 14778, "무자비": 14779, "지휘자": 14780, "자락": 14781, "##lin": 14782, "증빙": 14783, "장애물": 14784, "##순간": 14785, "브로": 14786, "펼친": 14787, "느낄": 14788, "쾌감": 14789, "메운": 14790, "권혁": 14791, "유정복": 14792, "됐": 14793, "발해": 14794, "엄지": 14795, "아성": 14796, "시화": 14797, "낭만주의": 14798, "국민": 14799, "형부": 14800, "##세": 14801, "조선사": 14802, "활약": 14803, "해질": 14804, "##RT": 14805, "세이프": 14806, "스피커": 14807, "도형": 14808, "증가세": 14809, "역사": 14810, "##J": 14811, "Social": 14812, "고산": 14813, "##벤션": 14814, "써도": 14815, "PEF": 14816, "귀하": 14817, "밀착": 14818, "발": 14819, "의심": 14820, "1933": 14821, "레인지": 14822, "뱀": 14823, "##콥": 14824, "커브": 14825, "스펀": 14826, "Te": 14827, "교문": 14828, "##ata": 14829, "로테이션": 14830, "로울": 14831, "천문학": 14832, "케어": 14833, "원피스": 14834, "그랜저": 14835, "##택동": 14836, "사내": 14837, "##하루": 14838, "못할": 14839, "국외": 14840, "심사": 14841, "가속도": 14842, "##찍": 14843, "키운다": 14844, "쎄": 14845, "주정": 14846, "위성": 14847, "쫓아내": 14848, "노련": 14849, "##으": 14850, "백일": 14851, "평론가": 14852, "확립": 14853, "기울인다": 14854, "환경청": 14855, "##랙": 14856, "침범": 14857, "##뺨": 14858, "파운데이션": 14859, "##만금": 14860, "실지": 14861, "소매": 14862, "스카이": 14863, "참석": 14864, "성매매": 14865, "朝": 14866, "##치료": 14867, "던질": 14868, "커다랗": 14869, "##멘": 14870, "부담감": 14871, "제어": 14872, "재미있": 14873, "##버섯": 14874, "볼턴": 14875, "##uss": 14876, "남극": 14877, "즐겨": 14878, "연구실": 14879, "할인": 14880, "면책": 14881, "서독": 14882, "복음": 14883, "57": 14884, "포메라": 14885, "잃어버": 14886, "동아일보": 14887, "##특별": 14888, "##스트럭": 14889, "목동": 14890, "껌": 14891, "증후": 14892, "##통화기": 14893, "##줘": 14894, "##붓": 14895, "복습": 14896, "영향": 14897, "CS": 14898, "산중": 14899, "찔러": 14900, "마켓": 14901, "궁지": 14902, "깊숙": 14903, "앞둔": 14904, "변동성": 14905, "비오": 14906, "움": 14907, "서대문구": 14908, "周": 14909, "##럼": 14910, "가라앉": 14911, "##동맥": 14912, "조목": 14913, "어이": 14914, "##덥": 14915, "주범": 14916, "##복": 14917, "은하": 14918, "휘말": 14919, "몸싸움": 14920, "인도": 14921, "따라오": 14922, "이주노": 14923, "볍": 14924, "의": 14925, "견주": 14926, "재물": 14927, "196": 14928, "##eneral": 14929, "유로": 14930, "##가운": 14931, "수류": 14932, "##사전": 14933, "소릴": 14934, "성도": 14935, "Bus": 14936, "조윤": 14937, "##안간": 14938, "KOTRA": 14939, "##깃": 14940, "문자": 14941, "##문고": 14942, "##촉": 14943, "##팔트": 14944, "##스트": 14945, "元": 14946, "##장각": 14947, "신동빈": 14948, "바랐": 14949, "매출액": 14950, "예언": 14951, "만족감": 14952, "조원진": 14953, "福": 14954, "제갈량": 14955, "대권": 14956, "휘": 14957, "잔치": 14958, "매표": 14959, "모셨": 14960, "아파서": 14961, "##oung": 14962, "현판": 14963, "##기야": 14964, "냉장": 14965, "해군": 14966, "##돋": 14967, "띄웠": 14968, "폈": 14969, "분기점": 14970, "##HA": 14971, "안진": 14972, "양념장": 14973, "포메라니안": 14974, "룰": 14975, "굉장히": 14976, "##애": 14977, "##ett": 14978, "낚": 14979, "중심부": 14980, "고등학생": 14981, "출산율": 14982, "군중": 14983, "에베레스트": 14984, "은은": 14985, "특단": 14986, "망원": 14987, "물산": 14988, "예금자": 14989, "##뮌": 14990, "##소매": 14991, "##팔이": 14992, "스펙": 14993, "##야": 14994, "괴": 14995, "강창": 14996, "떨림": 14997, "신용장": 14998, "무림": 14999, "장지": 15000, "##아리": 15001, "##둔": 15002, "##로운": 15003, "이종석": 15004, "리틀": 15005, "은가": 15006, "방패": 15007, "##uty": 15008, "항공사": 15009, "야단": 15010, "간절": 15011, "팻말": 15012, "연정": 15013, "세균": 15014, "234": 15015, "마당": 15016, "수묵": 15017, "구라": 15018, "샅샅이": 15019, "수령": 15020, "결연": 15021, "나이지리아": 15022, "하원": 15023, "유럽연합": 15024, "휘발유": 15025, "연금술": 15026, "아웃도어": 15027, "탈루": 15028, "줄인": 15029, "기념관": 15030, "숨겼": 15031, "큐": 15032, "호수": 15033, "증거물": 15034, "깔끔": 15035, "운행": 15036, "열거": 15037, "한화그룹": 15038, "만물": 15039, "##산업": 15040, "ㅣ": 15041, "엿보인다": 15042, "##ff": 15043, "청정": 15044, "##말": 15045, "평양": 15046, "시아버지": 15047, "##과학": 15048, "주일": 15049, "창문": 15050, "운동회": 15051, "##톡스": 15052, "##경궁": 15053, "신속히": 15054, "200": 15055, "오르": 15056, "시료": 15057, "##㎾": 15058, "방출": 15059, "등단": 15060, "화성시": 15061, "##밑": 15062, "비시": 15063, "원주시": 15064, "관리직": 15065, "외": 15066, "모음": 15067, "경희": 15068, "이기심": 15069, "뽀": 15070, "스스로": 15071, "세일즈": 15072, "심사숙고": 15073, "번뜩": 15074, "##나라": 15075, "소관": 15076, "어둠": 15077, "팬츠": 15078, "송출": 15079, "위헌": 15080, "##CI": 15081, "경찰": 15082, "팔려": 15083, "##부인과": 15084, "상임위": 15085, "공포증": 15086, "알프스": 15087, "마고": 15088, "롯데칠성": 15089, "신학자": 15090, "칸트": 15091, "타령": 15092, "낚아": 15093, "생략": 15094, "##껍": 15095, "##기사": 15096, "강탈": 15097, "꼬막": 15098, "그람": 15099, "점차": 15100, "지나칠": 15101, "미만": 15102, "딴": 15103, "커밍": 15104, "돌아갔": 15105, "금호": 15106, "대조표": 15107, "기무사": 15108, "건너편": 15109, "##뇨": 15110, "좌완": 15111, "아인슈타인": 15112, "공자": 15113, "60": 15114, "비탈": 15115, "MMF": 15116, "조례": 15117, "막": 15118, "et": 15119, "쿨링": 15120, "사방": 15121, "튀": 15122, "둘러보": 15123, "我": 15124, "몰아내": 15125, "##내렸": 15126, "트랩": 15127, "부결": 15128, "조짐": 15129, "짝퉁": 15130, "공기": 15131, "밴쿠버": 15132, "##캉": 15133, "##해": 15134, "宮": 15135, "두텁": 15136, "성찬": 15137, "##이어": 15138, "리차드": 15139, "흘렸": 15140, "호날두": 15141, "각각": 15142, "새롭": 15143, "주눅": 15144, "불응": 15145, "맞서": 15146, "뜻밖": 15147, "휘둘리": 15148, "들어설": 15149, "무한도전": 15150, "온": 15151, "대출": 15152, "학부모": 15153, "썰매": 15154, "갑오": 15155, "대궐": 15156, "끓인": 15157, "밑돌": 15158, "심경": 15159, "자평": 15160, "##렁거리": 15161, "앞산": 15162, "아름다": 15163, "잔액": 15164, "성공": 15165, "잠금": 15166, "케네": 15167, "동종": 15168, "안배": 15169, "트로피": 15170, "팔달": 15171, "두께": 15172, "굴뚝": 15173, "쫙": 15174, "후궁": 15175, "마녀": 15176, "진시": 15177, "자리": 15178, "##자료": 15179, "라거나": 15180, "프리미엄": 15181, "분장": 15182, "의중": 15183, "##어음": 15184, "성북": 15185, "실마리": 15186, "꺼지": 15187, "##떤": 15188, "##러브": 15189, "끊겼": 15190, "##its": 15191, "孫": 15192, "푸": 15193, "합의": 15194, "반듯": 15195, "레전드": 15196, "랫": 15197, "잔": 15198, "태백산": 15199, "비합": 15200, "최규": 15201, "파이터": 15202, "동해": 15203, "농림": 15204, "윗선": 15205, "석연": 15206, "협약": 15207, "hom": 15208, "몰랐다": 15209, "무함마드": 15210, "으": 15211, "검경": 15212, "영결": 15213, "유리": 15214, "대기실": 15215, "테마주": 15216, "불모": 15217, "올려다보": 15218, "미흡": 15219, "##잡이": 15220, "##살": 15221, "이면": 15222, "개신교": 15223, "재검토": 15224, "빤": 15225, "조롱": 15226, "##렁크": 15227, "자본": 15228, "엽": 15229, "윤활유": 15230, "프롤": 15231, "체육관": 15232, "핵연료": 15233, "경로": 15234, "느릿": 15235, "엣": 15236, "간직": 15237, "자갈": 15238, "감염자": 15239, "어울릴": 15240, "업주": 15241, "##ulture": 15242, "막힐": 15243, "예순": 15244, "천진": 15245, "청사진": 15246, "왈": 15247, "일본": 15248, "부대": 15249, "채우": 15250, "##묻": 15251, "코펜하겐": 15252, "풀이": 15253, "##em": 15254, "대하": 15255, "걷어": 15256, "郞": 15257, "가둬": 15258, "내미": 15259, "##ress": 15260, "암튼": 15261, "##´": 15262, "##랄": 15263, "못": 15264, "중시": 15265, "김희": 15266, "다가오": 15267, "휴일": 15268, "휘둘러": 15269, "속상하": 15270, "##∼": 15271, "공인": 15272, "몸살": 15273, "##K": 15274, "허나": 15275, "괴물": 15276, "아무개": 15277, "##카스": 15278, "깔리": 15279, "##ridge": 15280, "끈": 15281, "큰소리": 15282, "포털": 15283, "맞받": 15284, "개방": 15285, "샌프란시스코": 15286, "쯔": 15287, "제철소": 15288, "그래서": 15289, "논란": 15290, "경찰대": 15291, "정우": 15292, "페널": 15293, "공로": 15294, "헤딩": 15295, "충청": 15296, "클리": 15297, "##조각": 15298, "1978": 15299, "초래": 15300, "편치": 15301, "선인": 15302, "생산물": 15303, "과제": 15304, "사업체": 15305, "두근두근": 15306, "##렀": 15307, "김부": 15308, "##케이션": 15309, "##LED": 15310, "겔": 15311, "경쟁": 15312, "확연": 15313, "##슘": 15314, "가입": 15315, "바람": 15316, "착취": 15317, "클리닉": 15318, "126": 15319, "엄연히": 15320, "업계": 15321, "##썰": 15322, "간지": 15323, "드래프트": 15324, "대국민": 15325, "홍대": 15326, "##득점": 15327, "카톡": 15328, "부풀리": 15329, "워너": 15330, "내세": 15331, "이것": 15332, "메타": 15333, "재투자": 15334, "##어붙": 15335, "나체": 15336, "##길동": 15337, "환자": 15338, "생겨나": 15339, "푸틴": 15340, "포구": 15341, "데뷔작": 15342, "리퍼": 15343, "대패": 15344, "##칩니다": 15345, "철분": 15346, "이요": 15347, "재생": 15348, "02": 15349, "곰팡이": 15350, "##ule": 15351, "수조": 15352, "송구": 15353, "분사": 15354, "신봉": 15355, "##apter": 15356, "272": 15357, "새댁": 15358, "##시안": 15359, "##포르": 15360, "지으며": 15361, "정복": 15362, "병동": 15363, "이근": 15364, "종이": 15365, "아린": 15366, "열풍": 15367, "내팽": 15368, "부지": 15369, "거의": 15370, "##계약": 15371, "식중독": 15372, "중기": 15373, "경대": 15374, "##같": 15375, "##ence": 15376, "기차": 15377, "##워했": 15378, "벌어지": 15379, "남하": 15380, "송은": 15381, "수혜자": 15382, "덜덜": 15383, "라미": 15384, "영사": 15385, "스럽": 15386, "트럼프": 15387, "수소": 15388, "노조원": 15389, "올라갈": 15390, "수갑": 15391, "주소": 15392, "손해배상": 15393, "숙련": 15394, "Reg": 15395, "119": 15396, "오지": 15397, "Paul": 15398, "종결": 15399, "직장인": 15400, "산산": 15401, "월스트리트": 15402, "인도주의": 15403, "자매결연": 15404, "광복": 15405, "반발": 15406, "시끌": 15407, "몽둥이": 15408, "주정차": 15409, "{": 15410, "##이터": 15411, "벙어리": 15412, "해답": 15413, "연타": 15414, "야자": 15415, "톈진": 15416, "뛰쳐": 15417, "##떴": 15418, "전문": 15419, "프리랜": 15420, "휴게": 15421, "연우": 15422, "누르": 15423, "##손": 15424, "나쁜": 15425, "순사": 15426, "크리스털": 15427, "보급": 15428, "시카고": 15429, "자유형": 15430, "김두": 15431, "##섰": 15432, "##스테르담": 15433, "영감": 15434, "시기": 15435, "요새": 15436, "경매": 15437, "데려다": 15438, "브렌트": 15439, "경도": 15440, "##욤": 15441, "##터스": 15442, "카를로스": 15443, "우성": 15444, "2200": 15445, "##더슨": 15446, "배영": 15447, "1946": 15448, "알칼리": 15449, "큐브": 15450, "디즈": 15451, "##겼": 15452, "판자": 15453, "정윤": 15454, "기마": 15455, "왕복": 15456, "규": 15457, "속눈썹": 15458, "신분당선": 15459, "된다며": 15460, "업소": 15461, "구절": 15462, "Sm": 15463, "에티": 15464, "신설": 15465, "명의": 15466, "줬": 15467, "뻥": 15468, "오렌지": 15469, "상속인": 15470, "답례": 15471, "100": 15472, "##alys": 15473, "##워": 15474, "SA": 15475, "진급": 15476, "의령": 15477, "고칠": 15478, "중턱": 15479, "125": 15480, "길목": 15481, "파리": 15482, "E": 15483, "저점": 15484, "중구": 15485, "전수": 15486, "##삭": 15487, "유혹": 15488, "빽빽": 15489, "##짐": 15490, "거꾸": 15491, "集": 15492, "도량": 15493, "외가": 15494, "재수생": 15495, "bre": 15496, "##예산": 15497, "윈": 15498, "이틀": 15499, "방랑": 15500, "딘": 15501, "송유": 15502, "Americ": 15503, "##ade": 15504, "페이지": 15505, "##베르": 15506, "폭파": 15507, "노심": 15508, "우먼": 15509, "실기": 15510, "가위": 15511, "릴리": 15512, "거제시": 15513, "케리": 15514, "비타민": 15515, "라면서": 15516, "지옥": 15517, "야근": 15518, "웨슬리": 15519, "촬영장": 15520, "박찬호": 15521, "커진다": 15522, "바티": 15523, "##GA": 15524, "오이디푸스": 15525, "토너": 15526, "대종": 15527, "외로움": 15528, "##밀히": 15529, "도루": 15530, "##좋": 15531, "오솔": 15532, "측량": 15533, "무기": 15534, "우익": 15535, "마수": 15536, "##ㆍ이": 15537, "베이컨": 15538, "공소장": 15539, "패셔": 15540, "천착": 15541, "까페": 15542, "전라도": 15543, "예술제": 15544, "유분": 15545, "수상": 15546, "궂": 15547, "##리오": 15548, "김규": 15549, "쟁점": 15550, "내쉬": 15551, "IMF": 15552, "노트": 15553, "##마디": 15554, "##니안": 15555,
[...]
